const unsigned char model[] = {28, 0, 0, 0, 84, 70, 76, 51, 20, 0, 32, 0, 28, 0, 24, 0, 20, 0, 16, 0, 12, 0, 0, 0, 8, 0, 4, 0, 20, 0, 0, 0, 28, 0, 0, 0, 140, 0, 0, 0, 228, 0, 0, 0, 180, 183, 4, 0, 196, 183, 4, 0, 148, 191, 4, 0, 3, 0, 0, 0, 1, 0, 0, 0, 4, 0, 0, 0, 74, 71, 251, 255, 12, 0, 0, 0, 28, 0, 0, 0, 60, 0, 0, 0, 15, 0, 0, 0, 115, 101, 114, 118, 105, 110, 103, 95, 100, 101, 102, 97, 117, 108, 116, 0, 1, 0, 0, 0, 4, 0, 0, 0, 144, 255, 255, 255, 13, 0, 0, 0, 4, 0, 0, 0, 8, 0, 0, 0, 111, 117, 116, 112, 117, 116, 95, 48, 0, 0, 0, 0, 1, 0, 0, 0, 4, 0, 0, 0, 46, 72, 251, 255, 4, 0, 0, 0, 12, 0, 0, 0, 107, 101, 114, 97, 115, 95, 116, 101, 110, 115, 111, 114, 0, 0, 0, 0, 2, 0, 0, 0, 52, 0, 0, 0, 4, 0, 0, 0, 220, 255, 255, 255, 16, 0, 0, 0, 4, 0, 0, 0, 19, 0, 0, 0, 67, 79, 78, 86, 69, 82, 83, 73, 79, 78, 95, 77, 69, 84, 65, 68, 65, 84, 65, 0, 8, 0, 12, 0, 8, 0, 4, 0, 8, 0, 0, 0, 15, 0, 0, 0, 4, 0, 0, 0, 19, 0, 0, 0, 109, 105, 110, 95, 114, 117, 110, 116, 105, 109, 101, 95, 118, 101, 114, 115, 105, 111, 110, 0, 17, 0, 0, 0, 204, 182, 4, 0, 196, 182, 4, 0, 180, 180, 4, 0, 164, 4, 0, 0, 148, 3, 0, 0, 124, 3, 0, 0, 100, 3, 0, 0, 20, 1, 0, 0, 196, 0, 0, 0, 188, 0, 0, 0, 180, 0, 0, 0, 172, 0, 0, 0, 164, 0, 0, 0, 156, 0, 0, 0, 148, 0, 0, 0, 116, 0, 0, 0, 4, 0, 0, 0, 238, 72, 251, 255, 4, 0, 0, 0, 96, 0, 0, 0, 16, 0, 0, 0, 0, 0, 0, 0, 8, 0, 14, 0, 8, 0, 4, 0, 8, 0, 0, 0, 16, 0, 0, 0, 36, 0, 0, 0, 0, 0, 6, 0, 8, 0, 4, 0, 6, 0, 0, 0, 4, 0, 0, 0, 0, 0, 0, 0, 12, 0, 24, 0, 20, 0, 16, 0, 12, 0, 4, 0, 12, 0, 0, 0, 75, 91, 250, 143, 46, 70, 233, 242, 2, 0, 0, 0, 2, 0, 0, 0, 4, 0, 0, 0, 6, 0, 0, 0, 50, 46, 49, 57, 46, 48, 0, 0, 90, 73, 251, 255, 4, 0, 0, 0, 16, 0, 0, 0, 49, 46, 53, 46, 48, 0, 0, 0, 0, 0, 0, 0, 0, 0, 0, 0, 84, 66, 251, 255, 88, 66, 251, 255, 92, 66, 251, 255, 96, 66, 251, 255, 100, 66, 251, 255, 104, 66, 251, 255, 142, 73, 251, 255, 4, 0, 0, 0, 64, 0, 0, 0, 150, 105, 197, 189, 218, 162, 141, 189, 85, 106, 131, 189, 108, 192, 244, 188, 102, 42, 117, 189, 95, 67, 78, 189, 156, 156, 92, 189, 103, 96, 154, 189, 152, 64, 150, 189, 230, 223, 130, 189, 43, 165, 159, 189, 228, 99, 95, 189, 69, 237, 53, 188, 123, 89, 84, 189, 9, 38, 139, 189, 119, 251, 253, 188, 218, 73, 251, 255, 4, 0, 0, 0, 64, 2, 0, 0, 237, 163, 139, 189, 71, 7, 91, 189, 3, 180, 189, 61, 53, 211, 15, 190, 230, 24, 53, 62, 18, 124, 59, 190, 51, 225, 197, 61, 131, 215, 13, 62, 114, 98, 13, 61, 41, 249, 34, 190, 244, 14, 25, 62, 36, 21, 122, 61, 67, 238, 27, 62, 252, 3, 175, 188, 41, 7, 254, 61, 190, 161, 172, 189, 159, 136, 28, 62, 117, 54, 28, 190, 179, 5, 171, 188, 80, 70, 231, 189, 90, 131, 181, 187, 79, 204, 222, 60, 145, 130, 38, 61, 85, 20, 234, 60, 35, 216, 14, 62, 174, 4, 159, 189, 201, 178, 0, 60, 36, 132, 195, 189, 50, 219, 191, 59, 22, 202, 15, 62, 40, 59, 130, 61, 167, 241, 47, 62, 168, 89, 120, 189, 246, 254, 43, 190, 169, 20, 190, 61, 142, 74, 74, 62, 147, 157, 62, 61, 185, 167, 117, 61, 137, 175, 254, 187, 166, 155, 10, 61, 67, 105, 11, 190, 219, 209, 152, 61, 170, 161, 160, 189, 106, 16, 237, 188, 106, 164, 221, 189, 195, 151, 20, 189, 63, 237, 177, 187, 250, 164, 104, 61, 38, 190, 9, 189, 141, 99, 196, 189, 146, 41, 68, 58, 31, 226, 45, 190, 75, 202, 56, 189, 85, 15, 68, 62, 187, 235, 61, 60, 145, 110, 17, 190, 24, 107, 44, 62, 81, 37, 104, 189, 238, 57, 228, 60, 227, 24, 112, 61, 207, 109, 157, 189, 107, 238, 219, 189, 140, 5, 156, 189, 238, 117, 224, 189, 124, 181, 190, 187, 15, 76, 187, 61, 6, 25, 136, 189, 94, 221, 129, 61, 88, 1, 136, 59, 161, 110, 59, 62, 85, 201, 146, 59, 183, 168, 212, 189, 55, 248, 239, 189, 140, 187, 22, 189, 137, 127, 154, 61, 70, 28, 246, 61, 176, 201, 207, 61, 68, 177, 15, 61, 145, 77, 36, 61, 213, 145, 39, 62, 36, 164, 210, 189, 150, 79, 138, 60, 124, 150, 28, 190, 88, 173, 7, 62, 28, 131, 153, 188, 111, 68, 30, 189, 15, 233, 10, 62, 59, 109, 167, 61, 223, 108, 69, 61, 133, 146, 252, 189, 249, 107, 172, 188, 5, 31, 215, 189, 204, 77, 105, 61, 130, 53, 209, 189, 175, 215, 49, 62, 194, 107, 56, 190, 3, 225, 141, 189, 87, 104, 213, 189, 195, 239, 245, 61, 100, 58, 12, 61, 36, 136, 162, 189, 246, 20, 63, 62, 42, 247, 226, 61, 52, 170, 193, 189, 73, 125, 173, 189, 203, 118, 18, 62, 156, 123, 208, 189, 188, 119, 128, 187, 192, 74, 156, 189, 163, 179, 187, 189, 157, 163, 19, 62, 65, 67, 41, 61, 242, 165, 133, 189, 66, 134, 148, 61, 97, 75, 139, 61, 17, 67, 36, 190, 94, 214, 204, 61, 97, 219, 29, 61, 12, 2, 253, 189, 93, 155, 225, 59, 72, 46, 240, 187, 7, 175, 174, 189, 195, 91, 105, 189, 211, 209, 49, 61, 231, 182, 191, 60, 178, 44, 17, 60, 185, 75, 114, 189, 30, 78, 213, 61, 55, 162, 221, 189, 137, 6, 180, 188, 131, 195, 201, 61, 83, 154, 200, 189, 5, 112, 9, 62, 107, 106, 156, 189, 102, 96, 124, 61, 47, 130, 51, 62, 251, 153, 28, 62, 179, 21, 6, 190, 111, 214, 251, 189, 87, 103, 23, 62, 216, 85, 21, 62, 153, 170, 167, 189, 245, 173, 128, 62, 161, 87, 247, 189, 38, 76, 251, 255, 4, 0, 0, 0, 8, 0, 0, 0, 255, 255, 255, 255, 176, 4, 0, 0, 58, 76, 251, 255, 4, 0, 0, 0, 8, 0, 0, 0, 14, 208, 140, 188, 14, 208, 140, 60, 78, 76, 251, 255, 4, 0, 0, 0, 0, 1, 0, 0, 107, 4, 171, 187, 13, 130, 161, 185, 235, 227, 135, 186, 188, 161, 196, 187, 169, 14, 135, 187, 67, 243, 223, 187, 92, 56, 115, 187, 57, 3, 254, 186, 172, 130, 114, 60, 63, 168, 196, 187, 36, 255, 164, 187, 177, 241, 37, 188, 11, 239, 141, 188, 151, 157, 31, 188, 172, 109, 126, 60, 128, 96, 188, 187, 154, 230, 65, 187, 76, 111, 166, 187, 206, 65, 195, 58, 99, 181, 99, 187, 139, 146, 54, 188, 76, 71, 200, 187, 213, 17, 245, 186, 33, 163, 43, 188, 122, 53, 113, 188, 168, 198, 56, 188, 79, 191, 196, 187, 149, 32, 39, 187, 56, 185, 38, 60, 254, 90, 24, 188, 110, 42, 134, 60, 128, 194, 50, 60, 34, 144, 30, 188, 194, 247, 208, 187, 13, 11, 169, 58, 77, 103, 32, 188, 236, 249, 165, 187, 201, 122, 78, 187, 103, 18, 193, 187, 137, 133, 156, 187, 71, 3, 209, 187, 161, 60, 1, 188, 66, 157, 72, 60, 62, 223, 168, 188, 44, 94, 132, 60, 196, 107, 125, 188, 90, 20, 47, 187, 99, 102, 45, 188, 44, 21, 218, 59, 40, 114, 150, 187, 195, 125, 83, 187, 253, 227, 186, 188, 152, 157, 148, 187, 107, 70, 34, 60, 46, 255, 172, 187, 1, 6, 122, 187, 49, 12, 143, 60, 23, 27, 125, 187, 96, 173, 130, 188, 142, 13, 228, 187, 232, 110, 221, 187, 54, 79, 147, 188, 217, 85, 62, 60, 116, 124, 171, 188, 90, 77, 251, 255, 4, 0, 0, 0, 0, 176, 4, 0, 212, 229, 198, 188, 196, 52, 131, 187, 78, 79, 116, 189, 199, 71, 44, 189, 176, 48, 189, 188, 17, 253, 2, 189, 218, 189, 90, 61, 11, 32, 89, 188, 213, 185, 224, 58, 154, 125, 36, 189, 174, 141, 142, 189, 135, 220, 191, 59, 84, 159, 159, 188, 51, 10, 104, 188, 21, 196, 123, 189, 112, 142, 226, 60, 64, 206, 108, 189, 0, 101, 96, 189, 251, 91, 160, 188, 21, 131, 49, 60, 96, 105, 60, 187, 30, 213, 59, 61, 254, 244, 60, 61, 188, 120, 39, 61, 190, 37, 129, 61, 86, 242, 129, 60, 245, 192, 34, 189, 35, 190, 143, 189, 200, 200, 2, 189, 79, 6, 80, 60, 202, 141, 26, 61, 114, 119, 128, 60, 234, 140, 142, 189, 194, 172, 102, 61, 67, 133, 147, 187, 113, 48, 26, 60, 175, 182, 147, 188, 64, 169, 230, 187, 1, 108, 117, 189, 54, 114, 133, 189, 51, 220, 212, 58, 142, 51, 110, 189, 211, 13, 115, 61, 20, 225, 199, 187, 212, 101, 174, 187, 61, 170, 43, 189, 126, 116, 92, 189, 255, 22, 96, 189, 234, 231, 103, 189, 241, 143, 45, 188, 16, 163, 80, 61, 155, 83, 131, 189, 163, 83, 90, 61, 251, 177, 18, 61, 110, 157, 175, 186, 15, 154, 73, 189, 243, 245, 140, 60, 45, 90, 200, 188, 78, 79, 108, 189, 98, 45, 231, 60, 107, 106, 49, 189, 218, 77, 58, 61, 62, 151, 64, 61, 162, 171, 67, 189, 145, 30, 30, 189, 49, 115, 133, 58, 120, 87, 72, 189, 28, 210, 171, 57, 51, 229, 75, 61, 227, 186, 103, 61, 61, 128, 45, 61, 122, 65, 43, 187, 24, 221, 218, 188, 225, 166, 29, 189, 60, 77, 45, 189, 228, 105, 123, 61, 199, 226, 108, 61, 119, 106, 79, 189, 140, 29, 69, 188, 49, 54, 132, 189, 16, 190, 138, 187, 174, 174, 23, 189, 124, 118, 19, 189, 58, 47, 125, 61, 210, 167, 185, 187, 120, 10, 6, 61, 189, 161, 68, 188, 150, 141, 134, 188, 116, 20, 137, 189, 134, 135, 3, 61, 31, 59, 109, 189, 229, 72, 45, 61, 89, 191, 103, 188, 184, 192, 58, 61, 250, 248, 228, 188, 201, 154, 55, 60, 218, 105, 191, 188, 112, 8, 194, 188, 175, 245, 135, 189, 14, 129, 23, 189, 52, 161, 39, 187, 206, 110, 80, 61, 234, 206, 173, 188, 48, 54, 24, 61, 115, 13, 25, 189, 15, 126, 16, 188, 228, 240, 47, 61, 147, 22, 220, 60, 152, 166, 133, 189, 176, 238, 225, 188, 58, 231, 112, 61, 188, 76, 36, 60, 202, 111, 25, 61, 139, 98, 151, 189, 142, 57, 121, 188, 60, 156, 139, 188, 43, 70, 122, 61, 252, 190, 104, 61, 249, 162, 148, 188, 50, 203, 126, 189, 163, 159, 79, 189, 230, 128, 54, 188, 64, 245, 50, 188, 244, 175, 76, 61, 44, 51, 30, 60, 12, 225, 77, 61, 122, 16, 248, 188, 16, 1, 149, 60, 76, 54, 36, 188, 100, 1, 59, 189, 124, 173, 89, 61, 254, 125, 218, 186, 88, 2, 128, 189, 138, 38, 112, 61, 125, 128, 31, 61, 139, 53, 167, 60, 219, 50, 68, 189, 83, 39, 145, 59, 66, 24, 131, 189, 92, 116, 113, 189, 44, 167, 94, 189, 112, 55, 56, 189, 71, 0, 53, 61, 9, 64, 103, 61, 238, 175, 173, 188, 179, 50, 62, 188, 242, 203, 255, 60, 19, 93, 158, 188, 179, 161, 246, 188, 71, 45, 166, 188, 19, 224, 186, 188, 250, 100, 83, 60, 101, 110, 64, 189, 183, 101, 164, 60, 200, 100, 73, 187, 150, 238, 164, 59, 37, 154, 222, 60, 50, 134, 102, 61, 144, 64, 136, 189, 33, 62, 162, 188, 12, 161, 61, 189, 126, 34, 19, 61, 234, 238, 56, 189, 160, 134, 51, 187, 86, 227, 88, 189, 93, 183, 40, 61, 65, 89, 61, 58, 170, 236, 251, 187, 81, 21, 223, 188, 106, 215, 49, 61, 220, 161, 154, 60, 6, 247, 114, 189, 87, 36, 24, 189, 230, 131, 21, 189, 223, 107, 54, 189, 212, 241, 42, 189, 98, 140, 77, 189, 163, 105, 237, 60, 197, 60, 215, 60, 21, 107, 1, 61, 45, 219, 99, 60, 141, 174, 129, 189, 106, 102, 61, 189, 31, 149, 52, 189, 22, 172, 79, 189, 52, 198, 150, 60, 200, 59, 137, 189, 158, 130, 39, 61, 179, 35, 57, 189, 154, 51, 28, 189, 239, 240, 59, 189, 52, 85, 133, 189, 210, 10, 139, 188, 105, 18, 132, 189, 149, 254, 131, 60, 93, 125, 160, 59, 165, 11, 99, 58, 100, 65, 142, 59, 110, 42, 136, 189, 202, 226, 5, 61, 145, 2, 7, 189, 141, 207, 164, 188, 244, 4, 88, 189, 14, 220, 170, 188, 51, 110, 118, 189, 50, 76, 111, 61, 178, 149, 63, 189, 57, 77, 250, 60, 101, 200, 124, 59, 48, 239, 25, 188, 82, 15, 125, 61, 211, 194, 61, 189, 220, 145, 78, 188, 44, 105, 187, 188, 208, 30, 147, 59, 158, 233, 159, 188, 31, 140, 75, 61, 185, 64, 217, 59, 140, 156, 91, 188, 206, 191, 191, 60, 111, 1, 244, 60, 217, 199, 3, 189, 125, 161, 100, 61, 8, 71, 251, 188, 175, 109, 35, 61, 38, 174, 90, 61, 131, 240, 19, 60, 75, 203, 116, 187, 100, 186, 80, 61, 66, 151, 33, 189, 208, 210, 240, 187, 162, 184, 177, 59, 83, 79, 23, 187, 155, 43, 115, 61, 215, 203, 219, 60, 118, 78, 38, 60, 64, 6, 35, 60, 240, 119, 173, 187, 79, 243, 184, 57, 134, 185, 65, 189, 75, 144, 63, 189, 106, 55, 144, 60, 9, 147, 107, 188, 193, 75, 37, 189, 149, 169, 235, 60, 135, 137, 10, 59, 115, 223, 83, 189, 226, 78, 114, 60, 236, 118, 125, 60, 144, 114, 57, 189, 74, 59, 8, 189, 96, 195, 90, 189, 75, 133, 219, 60, 224, 172, 240, 60, 148, 119, 149, 189, 60, 150, 196, 60, 234, 244, 246, 60, 92, 140, 126, 189, 0, 176, 42, 61, 158, 218, 193, 60, 100, 8, 55, 189, 106, 186, 102, 61, 174, 126, 57, 189, 36, 105, 32, 61, 29, 57, 150, 188, 147, 60, 96, 189, 56, 5, 103, 188, 154, 123, 54, 189, 197, 124, 98, 188, 174, 48, 227, 188, 4, 17, 247, 60, 212, 176, 116, 60, 16, 248, 5, 189, 206, 27, 165, 60, 201, 4, 92, 189, 234, 254, 126, 61, 144, 23, 30, 61, 118, 71, 112, 189, 214, 197, 87, 61, 100, 146, 72, 61, 100, 179, 169, 188, 32, 189, 145, 187, 33, 191, 60, 189, 16, 189, 7, 189, 72, 10, 114, 60, 140, 235, 104, 189, 27, 141, 18, 61, 68, 234, 252, 188, 248, 108, 92, 187, 195, 49, 132, 61, 20, 192, 104, 189, 70, 194, 108, 61, 134, 99, 124, 61, 169, 37, 129, 187, 74, 132, 93, 189, 101, 196, 12, 189, 22, 161, 62, 61, 246, 29, 171, 188, 225, 253, 121, 189, 100, 164, 58, 189, 244, 78, 98, 61, 182, 126, 127, 61, 67, 249, 2, 61, 46, 250, 122, 189, 36, 14, 158, 186, 232, 132, 167, 188, 191, 204, 140, 189, 96, 145, 135, 59, 179, 147, 17, 188, 166, 151, 210, 188, 176, 213, 166, 188, 116, 66, 212, 60, 57, 198, 124, 189, 246, 224, 243, 188, 86, 76, 180, 60, 55, 126, 238, 188, 92, 23, 136, 60, 213, 76, 1, 61, 80, 116, 166, 60, 32, 166, 144, 60, 107, 176, 17, 61, 210, 208, 70, 189, 204, 135, 15, 61, 214, 215, 103, 61, 36, 84, 81, 61, 33, 173, 39, 188, 12, 84, 45, 189, 40, 206, 41, 189, 222, 201, 196, 188, 140, 54, 27, 61, 139, 211, 69, 60, 186, 47, 143, 189, 34, 118, 175, 188, 215, 108, 25, 189, 158, 142, 48, 189, 94, 222, 93, 61, 255, 254, 248, 188, 20, 180, 1, 188, 161, 221, 108, 189, 152, 122, 43, 189, 251, 6, 32, 189, 74, 20, 132, 60, 157, 169, 14, 189, 4, 146, 151, 59, 24, 126, 152, 60, 252, 120, 202, 60, 180, 171, 84, 60, 13, 126, 72, 61, 112, 27, 51, 189, 98, 20, 60, 187, 213, 185, 55, 61, 170, 180, 166, 188, 5, 174, 132, 61, 239, 228, 12, 189, 151, 1, 72, 61, 24, 190, 107, 189, 133, 11, 20, 189, 120, 235, 105, 188, 144, 46, 126, 189, 153, 197, 93, 189, 32, 26, 11, 60, 44, 57, 49, 61, 132, 52, 30, 61, 149, 82, 13, 189, 94, 62, 88, 189, 146, 112, 13, 189, 45, 155, 49, 189, 128, 145, 5, 187, 26, 226, 140, 60, 0, 80, 35, 58, 124, 171, 34, 61, 222, 151, 76, 61, 183, 144, 93, 61, 23, 58, 17, 188, 176, 51, 65, 189, 74, 11, 152, 60, 88, 143, 89, 189, 27, 116, 135, 61, 193, 200, 16, 61, 95, 240, 101, 189, 61, 219, 116, 58, 222, 2, 17, 61, 13, 168, 27, 188, 56, 137, 47, 189, 149, 102, 187, 188, 172, 186, 40, 189, 220, 148, 17, 60, 134, 167, 82, 189, 249, 171, 166, 59, 137, 229, 148, 189, 115, 176, 204, 60, 25, 243, 253, 60, 164, 137, 59, 189, 152, 202, 62, 189, 255, 92, 91, 61, 242, 85, 236, 60, 152, 131, 92, 189, 183, 97, 5, 61, 233, 92, 13, 61, 44, 157, 163, 60, 158, 225, 78, 189, 156, 52, 90, 189, 92, 199, 124, 189, 96, 129, 7, 60, 188, 199, 4, 61, 64, 125, 10, 61, 18, 211, 138, 189, 153, 41, 164, 188, 42, 17, 104, 61, 43, 31, 107, 189, 240, 95, 148, 60, 61, 145, 9, 61, 130, 45, 42, 187, 244, 241, 38, 187, 24, 253, 120, 189, 134, 14, 174, 188, 38, 247, 122, 61, 178, 31, 29, 59, 193, 183, 205, 188, 251, 147, 84, 61, 119, 168, 139, 189, 81, 190, 39, 61, 6, 3, 128, 61, 165, 14, 70, 61, 230, 154, 75, 61, 76, 137, 117, 60, 124, 87, 76, 60, 4, 24, 131, 189, 39, 210, 184, 188, 100, 82, 150, 188, 10, 207, 196, 60, 231, 119, 190, 60, 212, 91, 144, 189, 119, 104, 150, 60, 248, 77, 30, 61, 5, 163, 47, 61, 39, 102, 4, 189, 93, 30, 3, 61, 92, 242, 44, 61, 41, 30, 23, 189, 18, 63, 26, 187, 79, 134, 189, 60, 103, 22, 247, 188, 227, 96, 100, 189, 64, 183, 56, 61, 91, 241, 53, 189, 80, 44, 111, 60, 159, 212, 118, 61, 191, 183, 96, 189, 37, 54, 120, 188, 158, 240, 121, 61, 136, 164, 140, 189, 187, 156, 80, 60, 128, 126, 20, 59, 109, 98, 213, 188, 164, 144, 182, 60, 82, 146, 148, 189, 88, 144, 107, 61, 192, 191, 121, 189, 187, 128, 234, 60, 151, 44, 35, 189, 52, 167, 6, 189, 180, 206, 74, 61, 95, 154, 55, 189, 181, 16, 245, 60, 236, 238, 166, 188, 85, 237, 95, 189, 175, 83, 203, 60, 4, 143, 62, 60, 152, 252, 1, 61, 201, 198, 184, 186, 200, 24, 95, 189, 84, 175, 128, 61, 189, 50, 27, 189, 107, 230, 6, 189, 181, 82, 179, 188, 117, 85, 56, 61, 157, 239, 117, 189, 176, 44, 221, 188, 112, 228, 78, 61, 224, 168, 23, 61, 57, 186, 141, 60, 154, 186, 72, 61, 132, 41, 101, 189, 37, 227, 139, 60, 21, 39, 60, 60, 228, 246, 146, 189, 217, 25, 63, 188, 254, 93, 20, 61, 213, 239, 108, 61, 92, 165, 210, 60, 14, 77, 31, 59, 64, 37, 110, 60, 91, 53, 121, 61, 28, 164, 209, 188, 189, 27, 30, 189, 11, 44, 72, 189, 38, 192, 100, 189, 167, 86, 0, 189, 34, 11, 17, 189, 201, 56, 96, 60, 0, 32, 233, 186, 254, 54, 61, 61, 130, 38, 111, 189, 125, 215, 79, 61, 183, 212, 177, 60, 204, 183, 10, 188, 84, 118, 106, 61, 160, 159, 118, 61, 234, 152, 24, 61, 16, 117, 235, 188, 212, 28, 62, 188, 2, 229, 2, 189, 0, 53, 104, 60, 91, 120, 141, 60, 219, 2, 118, 61, 209, 119, 138, 61, 203, 195, 142, 189, 200, 40, 20, 188, 88, 112, 43, 60, 123, 28, 127, 61, 48, 157, 87, 60, 10, 165, 62, 189, 158, 28, 33, 61, 3, 170, 83, 61, 200, 33, 183, 188, 254, 171, 192, 187, 177, 196, 12, 61, 212, 227, 69, 61, 240, 243, 243, 187, 210, 64, 59, 61, 20, 27, 148, 189, 236, 210, 148, 60, 86, 216, 97, 61, 38, 169, 117, 61, 181, 82, 118, 60, 194, 41, 22, 188, 91, 214, 21, 189, 213, 167, 21, 189, 29, 197, 127, 189, 170, 81, 3, 61, 117, 6, 95, 61, 49, 152, 56, 189, 153, 102, 129, 61, 4, 122, 8, 189, 126, 218, 48, 189, 5, 5, 128, 188, 149, 3, 55, 61, 156, 117, 147, 60, 116, 5, 19, 189, 24, 148, 14, 61, 36, 28, 102, 189, 163, 190, 3, 61, 210, 203, 53, 189, 83, 66, 244, 188, 164, 199, 1, 189, 164, 29, 188, 188, 244, 34, 1, 60, 203, 187, 97, 60, 72, 169, 17, 60, 187, 130, 73, 61, 88, 17, 166, 188, 54, 144, 72, 189, 13, 183, 148, 60, 78, 203, 180, 188, 30, 52, 44, 60, 210, 202, 124, 61, 159, 11, 39, 61, 189, 165, 172, 58, 59, 22, 109, 61, 1, 54, 3, 188, 42, 160, 37, 189, 86, 81, 76, 188, 76, 232, 186, 60, 46, 134, 5, 189, 60, 217, 24, 61, 18, 48, 61, 61, 50, 155, 42, 61, 254, 166, 38, 61, 196, 107, 93, 61, 212, 100, 48, 61, 85, 206, 71, 60, 88, 114, 22, 188, 145, 138, 3, 61, 48, 139, 148, 189, 128, 168, 84, 189, 107, 15, 75, 60, 192, 99, 42, 61, 160, 251, 92, 189, 177, 93, 35, 58, 129, 15, 53, 189, 232, 62, 88, 188, 69, 249, 54, 61, 0, 179, 207, 186, 250, 20, 79, 61, 195, 114, 162, 188, 172, 118, 182, 60, 150, 74, 248, 59, 131, 10, 31, 61, 244, 192, 53, 61, 152, 175, 62, 61, 120, 197, 79, 61, 170, 127, 132, 189, 60, 206, 35, 188, 122, 244, 46, 58, 171, 211, 114, 188, 188, 200, 181, 59, 68, 150, 167, 60, 133, 7, 2, 61, 98, 47, 89, 189, 21, 178, 28, 61, 122, 204, 82, 189, 204, 240, 104, 188, 14, 2, 164, 60, 252, 164, 169, 59, 223, 245, 69, 189, 189, 237, 15, 189, 86, 245, 136, 188, 157, 138, 10, 189, 66, 131, 170, 60, 187, 160, 135, 186, 156, 7, 160, 187, 202, 147, 104, 189, 144, 57, 89, 60, 208, 240, 73, 61, 140, 78, 52, 189, 39, 113, 130, 60, 102, 138, 11, 60, 205, 173, 80, 189, 127, 47, 240, 60, 204, 115, 149, 189, 158, 10, 141, 189, 58, 220, 17, 60, 47, 77, 104, 189, 84, 109, 91, 189, 146, 33, 0, 189, 44, 30, 65, 189, 254, 234, 59, 60, 62, 231, 186, 187, 254, 251, 210, 188, 191, 150, 124, 189, 216, 128, 187, 188, 138, 129, 195, 188, 218, 52, 115, 188, 184, 217, 214, 188, 169, 150, 146, 188, 87, 121, 157, 60, 53, 212, 45, 189, 149, 207, 156, 60, 134, 178, 70, 189, 103, 75, 90, 61, 50, 59, 84, 61, 105, 178, 62, 61, 113, 64, 40, 189, 101, 250, 81, 189, 236, 143, 119, 188, 54, 40, 97, 59, 251, 254, 164, 188, 124, 199, 49, 61, 204, 217, 109, 189, 161, 59, 9, 189, 179, 150, 8, 187, 74, 92, 140, 60, 58, 93, 51, 189, 170, 129, 44, 188, 60, 222, 102, 188, 188, 56, 57, 61, 37, 193, 63, 189, 37, 0, 38, 189, 243, 85, 137, 189, 235, 26, 234, 188, 128, 164, 225, 58, 47, 110, 126, 188, 138, 164, 9, 189, 152, 227, 157, 188, 68, 102, 138, 60, 212, 168, 108, 61, 36, 150, 118, 61, 97, 90, 166, 60, 251, 252, 72, 60, 212, 1, 184, 60, 239, 41, 61, 189, 36, 41, 223, 60, 66, 136, 206, 59, 103, 91, 30, 61, 17, 124, 101, 61, 75, 86, 11, 189, 2, 195, 85, 189, 69, 240, 149, 187, 65, 216, 75, 61, 64, 214, 132, 189, 66, 189, 124, 61, 43, 192, 153, 60, 0, 206, 141, 189, 212, 182, 14, 59, 76, 103, 103, 187, 237, 236, 170, 60, 37, 4, 228, 188, 200, 181, 145, 189, 211, 159, 19, 189, 68, 193, 53, 60, 149, 159, 116, 59, 61, 169, 141, 189, 86, 125, 29, 189, 184, 18, 99, 189, 212, 38, 79, 189, 81, 123, 131, 59, 68, 89, 37, 189, 16, 210, 193, 60, 88, 3, 242, 187, 31, 69, 92, 189, 224, 58, 139, 60, 91, 50, 104, 188, 44, 101, 25, 61, 202, 132, 222, 188, 59, 187, 18, 187, 38, 29, 95, 60, 91, 158, 0, 189, 100, 46, 171, 188, 225, 146, 16, 61, 84, 235, 138, 60, 167, 152, 7, 189, 69, 171, 65, 61, 39, 111, 112, 61, 147, 108, 90, 61, 124, 123, 78, 185, 130, 225, 50, 189, 10, 82, 4, 61, 238, 100, 4, 189, 79, 143, 56, 61, 128, 101, 15, 189, 239, 69, 179, 60, 24, 150, 110, 61, 12, 37, 44, 188, 235, 61, 49, 60, 9, 225, 124, 60, 81, 156, 16, 189, 160, 123, 139, 189, 150, 6, 156, 60, 33, 45, 121, 189, 38, 166, 38, 60, 235, 71, 63, 188, 200, 157, 249, 188, 62, 131, 239, 188, 55, 42, 56, 61, 19, 201, 16, 189, 252, 231, 49, 61, 103, 106, 250, 60, 142, 180, 64, 61, 0, 48, 130, 56, 64, 163, 23, 59, 45, 116, 15, 61, 191, 184, 68, 188, 125, 251, 99, 189, 91, 76, 77, 61, 230, 172, 139, 189, 60, 54, 31, 189, 159, 148, 130, 189, 18, 98, 108, 61, 54, 37, 135, 188, 73, 75, 125, 61, 203, 65, 236, 188, 61, 248, 2, 61, 81, 226, 172, 188, 109, 228, 138, 189, 114, 165, 5, 189, 118, 55, 82, 189, 157, 163, 91, 61, 101, 151, 4, 189, 212, 57, 49, 57, 194, 167, 94, 61, 216, 51, 126, 189, 88, 8, 105, 188, 74, 119, 49, 61, 75, 51, 220, 186, 161, 184, 145, 188, 11, 67, 95, 61, 51, 13, 100, 61, 104, 191, 20, 61, 246, 250, 241, 188, 71, 102, 4, 188, 172, 45, 20, 188, 230, 195, 16, 61, 252, 67, 106, 61, 94, 135, 237, 187, 55, 150, 80, 59, 142, 26, 181, 60, 211, 151, 137, 189, 11, 26, 128, 188, 157, 182, 44, 60, 131, 127, 173, 188, 66, 1, 64, 61, 182, 44, 63, 187, 206, 57, 255, 60, 154, 247, 90, 189, 38, 179, 217, 60, 128, 160, 197, 187, 230, 95, 10, 61, 128, 200, 4, 186, 75, 162, 10, 61, 148, 107, 134, 60, 162, 211, 122, 189, 202, 58, 103, 61, 146, 147, 248, 187, 67, 209, 26, 61, 194, 117, 61, 60, 80, 227, 63, 188, 160, 228, 242, 59, 156, 87, 98, 61, 108, 139, 135, 60, 215, 102, 223, 60, 72, 61, 117, 59, 249, 212, 61, 61, 228, 89, 169, 188, 28, 226, 66, 61, 78, 190, 121, 61, 26, 0, 75, 61, 130, 57, 99, 61, 162, 71, 225, 60, 39, 254, 153, 188, 54, 66, 155, 60, 40, 16, 70, 188, 210, 200, 18, 61, 12, 241, 6, 188, 208, 214, 233, 188, 57, 37, 123, 61, 16, 145, 78, 189, 76, 30, 7, 189, 89, 117, 194, 188, 116, 17, 37, 188, 96, 165, 0, 60, 70, 142, 75, 189, 227, 254, 116, 189, 50, 238, 37, 189, 133, 157, 210, 188, 74, 254, 46, 61, 93, 36, 13, 61, 224, 16, 185, 60, 146, 83, 249, 186, 154, 144, 31, 189, 133, 117, 223, 188, 166, 31, 43, 61, 127, 15, 222, 60, 118, 253, 26, 189, 190, 176, 160, 187, 244, 7, 95, 61, 2, 8, 14, 189, 149, 180, 120, 189, 80, 115, 23, 61, 214, 151, 238, 60, 241, 238, 82, 61, 48, 167, 212, 58, 91, 132, 90, 189, 168, 51, 38, 188, 211, 20, 254, 188, 58, 169, 123, 189, 100, 182, 108, 189, 6, 225, 18, 189, 122, 69, 221, 188, 213, 168, 141, 189, 37, 211, 161, 60, 226, 233, 111, 61, 154, 204, 27, 61, 108, 68, 127, 60, 104, 6, 96, 61, 172, 196, 120, 189, 126, 60, 18, 61, 134, 52, 165, 60, 140, 255, 98, 61, 60, 154, 17, 61, 125, 43, 100, 61, 255, 120, 25, 189, 74, 163, 84, 189, 91, 240, 155, 188, 130, 187, 70, 189, 102, 210, 227, 60, 29, 253, 63, 61, 208, 130, 187, 60, 187, 150, 97, 189, 174, 248, 235, 187, 169, 245, 130, 61, 134, 44, 129, 61, 237, 227, 31, 189, 149, 156, 71, 188, 91, 98, 80, 189, 212, 188, 178, 60, 160, 32, 96, 61, 83, 53, 178, 60, 241, 175, 187, 59, 199, 12, 241, 188, 209, 11, 72, 61, 41, 142, 4, 189, 30, 243, 76, 189, 140, 73, 156, 188, 115, 91, 60, 189, 73, 167, 160, 60, 34, 223, 50, 61, 84, 28, 28, 58, 12, 81, 171, 60, 44, 160, 51, 61, 47, 1, 109, 61, 48, 241, 195, 188, 23, 140, 148, 189, 24, 246, 91, 61, 26, 124, 119, 189, 136, 232, 41, 61, 79, 133, 112, 61, 17, 161, 42, 55, 198, 91, 189, 59, 226, 68, 255, 188, 3, 202, 230, 187, 189, 250, 126, 189, 243, 154, 56, 61, 211, 72, 19, 189, 128, 70, 255, 187, 31, 236, 129, 188, 225, 182, 131, 60, 78, 59, 75, 60, 108, 241, 0, 59, 211, 124, 119, 61, 55, 241, 127, 61, 135, 102, 198, 60, 54, 112, 109, 189, 15, 31, 199, 60, 138, 241, 69, 189, 128, 97, 34, 186, 187, 248, 11, 61, 71, 237, 139, 60, 196, 7, 1, 188, 234, 241, 105, 60, 18, 74, 208, 188, 66, 25, 206, 188, 217, 0, 24, 189, 237, 173, 139, 189, 30, 36, 127, 60, 176, 244, 196, 60, 206, 3, 143, 189, 225, 143, 28, 188, 243, 143, 164, 59, 36, 119, 38, 189, 109, 117, 224, 60, 64, 47, 249, 186, 228, 26, 57, 189, 193, 66, 7, 61, 93, 207, 112, 189, 134, 246, 34, 189, 82, 122, 54, 61, 50, 98, 60, 61, 127, 83, 67, 189, 118, 114, 208, 188, 232, 140, 88, 61, 158, 170, 202, 188, 91, 27, 3, 189, 44, 132, 40, 188, 232, 111, 197, 188, 107, 165, 246, 187, 60, 222, 122, 61, 232, 15, 26, 60, 62, 170, 95, 61, 11, 231, 7, 188, 126, 220, 97, 61, 94, 103, 83, 61, 62, 161, 102, 61, 212, 51, 228, 188, 204, 244, 149, 189, 240, 241, 19, 61, 123, 125, 2, 189, 161, 22, 79, 61, 60, 96, 192, 188, 102, 217, 28, 189, 46, 157, 21, 61, 71, 21, 18, 60, 19, 134, 49, 61, 136, 183, 193, 60, 67, 198, 148, 60, 254, 38, 61, 61, 215, 83, 46, 60, 11, 252, 120, 189, 77, 213, 13, 188, 132, 124, 218, 60, 184, 86, 54, 61, 156, 245, 108, 189, 127, 241, 22, 61, 133, 33, 47, 189, 74, 84, 130, 60, 226, 136, 56, 61, 48, 111, 122, 60, 170, 197, 87, 189, 99, 15, 246, 187, 216, 115, 91, 61, 158, 151, 63, 61, 112, 67, 97, 61, 238, 27, 52, 188, 94, 80, 85, 61, 29, 218, 242, 188, 162, 50, 188, 188, 194, 188, 214, 188, 143, 34, 75, 189, 99, 48, 97, 61, 244, 139, 67, 189, 42, 247, 170, 188, 16, 158, 91, 189, 27, 96, 104, 188, 164, 213, 183, 188, 3, 114, 136, 61, 188, 163, 158, 60, 63, 158, 187, 188, 171, 210, 238, 60, 66, 105, 34, 61, 201, 22, 139, 189, 141, 179, 110, 188, 245, 164, 140, 61, 243, 149, 127, 187, 3, 134, 85, 189, 181, 216, 36, 189, 32, 236, 12, 186, 9, 138, 33, 189, 109, 165, 146, 189, 91, 213, 46, 188, 59, 162, 45, 189, 247, 33, 20, 61, 105, 82, 216, 58, 197, 207, 143, 189, 199, 185, 0, 60, 222, 153, 253, 60, 236, 241, 33, 189, 6, 157, 72, 60, 200, 217, 250, 60, 61, 233, 84, 189, 11, 152, 151, 189, 150, 193, 110, 189, 115, 226, 190, 59, 66, 80, 87, 188, 103, 98, 156, 188, 25, 20, 35, 189, 241, 10, 49, 189, 105, 15, 83, 61, 54, 69, 230, 188, 179, 42, 250, 188, 25, 228, 100, 61, 230, 225, 94, 61, 201, 9, 46, 61, 36, 123, 89, 61, 250, 123, 65, 189, 229, 212, 151, 60, 151, 145, 33, 189, 25, 167, 170, 188, 11, 234, 139, 187, 124, 218, 94, 189, 31, 132, 126, 61, 217, 190, 27, 61, 123, 188, 19, 61, 19, 10, 32, 189, 18, 93, 169, 59, 104, 69, 78, 61, 150, 83, 22, 189, 104, 51, 120, 189, 244, 153, 20, 189, 221, 190, 197, 60, 140, 58, 85, 61, 74, 194, 49, 60, 224, 128, 32, 61, 23, 95, 31, 189, 175, 57, 184, 188, 247, 30, 27, 189, 29, 100, 104, 189, 223, 167, 81, 189, 53, 138, 91, 189, 118, 82, 217, 59, 45, 180, 109, 61, 210, 12, 55, 188, 114, 9, 72, 61, 230, 159, 36, 61, 121, 88, 53, 189, 194, 222, 40, 61, 34, 185, 129, 189, 252, 110, 36, 189, 172, 120, 126, 189, 19, 147, 46, 189, 1, 233, 120, 187, 73, 26, 173, 187, 198, 23, 18, 61, 20, 150, 177, 60, 64, 140, 197, 59, 18, 183, 87, 61, 119, 255, 157, 188, 167, 86, 178, 60, 144, 5, 50, 60, 12, 57, 23, 188, 39, 248, 44, 61, 27, 145, 57, 188, 170, 48, 228, 60, 55, 214, 199, 60, 122, 161, 17, 189, 119, 143, 226, 187, 197, 184, 232, 59, 76, 112, 2, 61, 12, 67, 143, 189, 176, 6, 75, 189, 130, 22, 17, 189, 33, 209, 5, 60, 99, 62, 120, 189, 205, 24, 97, 189, 252, 79, 84, 61, 19, 114, 134, 189, 27, 224, 128, 61, 50, 184, 161, 188, 18, 23, 180, 60, 18, 35, 127, 61, 227, 233, 249, 187, 136, 110, 30, 60, 1, 97, 196, 188, 120, 107, 118, 61, 231, 202, 246, 188, 223, 222, 108, 61, 241, 182, 228, 60, 48, 244, 84, 188, 72, 252, 111, 189, 144, 213, 74, 187, 0, 136, 188, 58, 84, 184, 238, 59, 199, 168, 247, 188, 134, 60, 74, 60, 229, 98, 51, 189, 90, 180, 112, 189, 189, 82, 129, 61, 160, 243, 76, 61, 92, 35, 127, 61, 255, 122, 134, 189, 162, 230, 150, 188, 182, 104, 120, 189, 15, 84, 126, 61, 85, 99, 170, 187, 241, 194, 91, 189, 181, 184, 181, 59, 14, 238, 167, 58, 242, 189, 115, 61, 172, 242, 146, 188, 64, 207, 105, 61, 150, 57, 1, 60, 110, 206, 150, 189, 217, 195, 187, 60, 95, 72, 23, 189, 183, 210, 68, 189, 165, 143, 138, 187, 128, 147, 114, 189, 10, 147, 36, 189, 175, 209, 87, 60, 243, 223, 105, 61, 79, 53, 215, 186, 16, 236, 106, 61, 29, 56, 128, 189, 235, 71, 8, 188, 70, 31, 117, 61, 226, 181, 86, 61, 124, 22, 40, 189, 122, 49, 90, 189, 175, 227, 237, 188, 144, 73, 101, 188, 231, 95, 140, 189, 176, 175, 43, 57, 66, 237, 160, 188, 98, 253, 22, 61, 47, 45, 44, 189, 13, 45, 107, 61, 53, 169, 159, 60, 49, 65, 87, 61, 163, 145, 128, 60, 73, 136, 136, 189, 164, 86, 57, 188, 47, 249, 61, 189, 129, 36, 69, 189, 156, 12, 193, 188, 14, 90, 147, 189, 65, 174, 2, 61, 97, 3, 154, 188, 211, 30, 175, 188, 239, 127, 86, 188, 247, 46, 52, 61, 243, 15, 23, 189, 113, 243, 200, 188, 231, 104, 29, 61, 178, 230, 187, 187, 2, 149, 162, 188, 249, 217, 21, 188, 83, 243, 126, 61, 172, 96, 175, 60, 93, 208, 191, 60, 193, 69, 99, 61, 79, 50, 249, 60, 189, 64, 74, 60, 98, 209, 110, 189, 155, 136, 55, 189, 166, 216, 137, 189, 184, 6, 219, 60, 160, 128, 144, 189, 160, 87, 9, 59, 104, 229, 237, 60, 40, 222, 15, 189, 251, 173, 32, 61, 143, 197, 235, 60, 169, 224, 184, 60, 86, 98, 234, 60, 117, 0, 138, 187, 203, 187, 117, 189, 207, 250, 140, 189, 232, 194, 68, 60, 53, 17, 136, 189, 63, 46, 48, 60, 105, 119, 19, 59, 132, 98, 197, 187, 67, 79, 62, 189, 253, 25, 181, 60, 248, 247, 40, 60, 57, 32, 188, 188, 232, 130, 106, 189, 83, 52, 52, 188, 22, 174, 133, 58, 141, 123, 173, 60, 42, 115, 84, 60, 252, 8, 211, 188, 35, 19, 218, 188, 197, 164, 41, 61, 205, 149, 30, 61, 237, 253, 222, 60, 154, 8, 101, 189, 122, 97, 64, 188, 71, 144, 1, 188, 140, 3, 197, 188, 109, 252, 62, 189, 173, 88, 55, 61, 63, 46, 41, 60, 22, 120, 42, 61, 29, 5, 46, 61, 31, 254, 130, 189, 228, 36, 18, 189, 238, 87, 79, 61, 10, 108, 18, 189, 44, 10, 132, 61, 125, 244, 34, 189, 135, 91, 52, 189, 79, 61, 228, 187, 145, 149, 193, 60, 157, 138, 142, 189, 152, 31, 160, 60, 201, 135, 81, 189, 108, 109, 225, 188, 229, 246, 17, 187, 117, 254, 42, 189, 215, 33, 117, 61, 77, 124, 123, 189, 80, 76, 218, 188, 237, 51, 252, 60, 108, 46, 32, 187, 93, 128, 141, 187, 212, 52, 227, 187, 208, 249, 251, 59, 50, 11, 72, 61, 206, 125, 111, 188, 115, 203, 6, 61, 250, 108, 53, 188, 143, 102, 189, 188, 163, 72, 61, 61, 226, 237, 80, 61, 29, 164, 195, 186, 246, 223, 64, 61, 68, 187, 123, 61, 102, 161, 239, 60, 248, 193, 50, 61, 136, 156, 110, 188, 91, 2, 103, 189, 166, 147, 120, 187, 220, 28, 48, 61, 26, 84, 30, 189, 245, 219, 70, 189, 227, 20, 87, 189, 235, 214, 240, 188, 241, 48, 235, 60, 166, 53, 135, 189, 153, 228, 50, 61, 18, 147, 86, 60, 126, 124, 215, 188, 53, 199, 7, 61, 109, 215, 165, 188, 84, 26, 54, 189, 161, 234, 128, 189, 46, 86, 94, 61, 238, 52, 170, 60, 186, 163, 99, 61, 226, 146, 91, 61, 26, 68, 43, 61, 244, 137, 71, 61, 140, 220, 64, 61, 218, 193, 194, 60, 252, 227, 13, 189, 147, 177, 4, 61, 228, 253, 87, 188, 38, 165, 144, 61, 184, 205, 123, 189, 63, 132, 82, 61, 0, 212, 84, 189, 48, 73, 47, 189, 48, 213, 54, 189, 11, 115, 252, 188, 180, 41, 239, 188, 201, 214, 184, 188, 241, 210, 128, 189, 117, 164, 111, 189, 1, 102, 63, 61, 214, 11, 145, 189, 207, 36, 121, 189, 225, 242, 225, 188, 103, 115, 124, 189, 138, 150, 195, 188, 137, 103, 42, 61, 197, 86, 206, 188, 79, 69, 168, 60, 90, 230, 232, 186, 196, 35, 129, 189, 108, 146, 20, 61, 149, 186, 141, 189, 195, 171, 92, 61, 55, 34, 154, 188, 18, 189, 119, 189, 88, 168, 204, 188, 166, 228, 11, 188, 15, 52, 110, 61, 138, 37, 131, 61, 120, 193, 200, 60, 75, 181, 234, 59, 178, 46, 140, 59, 172, 136, 129, 59, 206, 199, 136, 187, 226, 8, 118, 189, 18, 201, 222, 57, 149, 210, 105, 187, 185, 246, 88, 189, 185, 91, 177, 188, 110, 71, 31, 61, 166, 144, 119, 61, 191, 13, 56, 189, 217, 192, 166, 188, 224, 158, 212, 59, 102, 245, 245, 187, 75, 193, 128, 188, 225, 188, 70, 189, 126, 252, 185, 60, 202, 3, 237, 59, 237, 106, 70, 189, 69, 62, 108, 61, 17, 145, 224, 188, 69, 156, 114, 189, 51, 34, 95, 61, 191, 87, 53, 61, 208, 77, 223, 59, 237, 95, 91, 189, 107, 26, 115, 60, 151, 11, 197, 59, 56, 112, 156, 186, 61, 131, 8, 189, 221, 6, 159, 188, 121, 38, 97, 189, 9, 169, 128, 189, 106, 63, 132, 189, 110, 140, 40, 61, 143, 224, 157, 188, 12, 160, 13, 189, 35, 9, 66, 61, 80, 201, 166, 188, 127, 38, 204, 188, 244, 4, 191, 60, 169, 87, 55, 189, 57, 127, 136, 61, 213, 8, 9, 61, 252, 187, 21, 189, 205, 203, 96, 61, 146, 196, 210, 188, 127, 85, 133, 189, 94, 240, 227, 60, 106, 146, 216, 188, 197, 217, 24, 187, 145, 92, 180, 60, 36, 19, 118, 189, 12, 18, 39, 61, 104, 162, 129, 189, 7, 245, 24, 61, 41, 236, 26, 189, 44, 65, 153, 60, 143, 153, 62, 60, 143, 4, 234, 60, 214, 239, 76, 61, 220, 40, 244, 59, 113, 155, 61, 189, 244, 5, 69, 61, 223, 255, 79, 189, 152, 6, 3, 61, 111, 168, 12, 61, 163, 206, 97, 189, 106, 228, 89, 189, 195, 201, 38, 189, 88, 49, 98, 61, 119, 202, 121, 187, 151, 237, 83, 189, 30, 240, 105, 188, 215, 175, 152, 60, 251, 242, 137, 189, 230, 207, 240, 60, 31, 153, 153, 188, 137, 202, 159, 60, 174, 251, 77, 189, 214, 110, 116, 189, 176, 53, 84, 188, 79, 147, 131, 189, 8, 24, 175, 60, 101, 85, 64, 61, 93, 46, 25, 61, 92, 177, 84, 61, 249, 50, 48, 61, 174, 77, 200, 60, 77, 59, 119, 61, 250, 43, 79, 189, 175, 99, 66, 189, 235, 198, 148, 187, 119, 173, 130, 60, 160, 24, 8, 61, 126, 184, 52, 189, 140, 124, 225, 188, 219, 229, 242, 60, 182, 56, 22, 189, 218, 99, 3, 61, 239, 17, 100, 61, 147, 151, 218, 60, 188, 73, 12, 189, 132, 52, 180, 187, 231, 105, 140, 189, 120, 69, 67, 189, 83, 133, 75, 59, 49, 228, 51, 188, 12, 249, 41, 60, 102, 186, 60, 188, 145, 173, 142, 60, 2, 150, 83, 61, 126, 244, 41, 189, 60, 0, 35, 189, 222, 220, 113, 189, 223, 55, 132, 59, 5, 67, 134, 187, 95, 151, 6, 61, 244, 138, 57, 189, 164, 82, 111, 60, 201, 174, 39, 189, 196, 14, 22, 61, 37, 56, 163, 188, 223, 80, 101, 61, 227, 22, 55, 60, 252, 213, 107, 61, 51, 64, 201, 188, 66, 255, 124, 61, 71, 244, 144, 60, 196, 153, 69, 186, 238, 188, 42, 61, 28, 31, 111, 61, 98, 201, 122, 60, 92, 56, 62, 61, 138, 46, 138, 189, 73, 103, 91, 61, 193, 20, 130, 189, 36, 210, 2, 61, 240, 13, 91, 61, 249, 155, 196, 188, 144, 4, 24, 189, 228, 41, 55, 60, 43, 206, 133, 189, 0, 172, 79, 189, 2, 90, 118, 189, 63, 234, 167, 59, 129, 218, 43, 189, 179, 69, 60, 61, 188, 74, 210, 60, 231, 204, 140, 189, 169, 52, 25, 188, 251, 190, 212, 60, 124, 150, 225, 187, 83, 131, 159, 60, 79, 193, 36, 61, 116, 190, 144, 188, 235, 151, 31, 189, 238, 161, 111, 189, 21, 162, 123, 189, 83, 237, 84, 189, 208, 51, 74, 59, 98, 223, 239, 188, 218, 210, 2, 189, 64, 88, 106, 61, 241, 66, 97, 59, 161, 149, 77, 61, 32, 135, 47, 61, 253, 161, 218, 187, 147, 170, 90, 189, 184, 136, 47, 61, 229, 38, 190, 60, 94, 95, 39, 189, 52, 122, 131, 189, 191, 214, 117, 189, 137, 133, 166, 60, 242, 94, 70, 61, 66, 110, 211, 60, 127, 36, 129, 61, 243, 182, 227, 60, 186, 10, 105, 189, 65, 74, 180, 60, 199, 220, 81, 187, 7, 9, 4, 61, 219, 168, 80, 189, 174, 162, 48, 61, 227, 69, 12, 61, 51, 181, 137, 61, 23, 4, 55, 61, 1, 40, 197, 186, 158, 85, 160, 187, 17, 25, 230, 188, 90, 1, 41, 60, 194, 16, 76, 189, 24, 35, 106, 188, 233, 180, 132, 61, 150, 190, 82, 61, 92, 110, 17, 60, 56, 11, 108, 59, 71, 85, 210, 188, 192, 51, 140, 189, 243, 255, 223, 60, 236, 1, 243, 60, 176, 232, 5, 187, 86, 69, 134, 189, 71, 189, 79, 189, 72, 72, 160, 61, 174, 182, 254, 188, 93, 114, 209, 187, 3, 21, 66, 189, 237, 98, 205, 188, 197, 41, 72, 189, 153, 245, 103, 59, 217, 140, 21, 61, 94, 40, 79, 60, 117, 109, 9, 61, 11, 37, 80, 61, 12, 82, 107, 61, 17, 162, 109, 61, 102, 9, 12, 61, 92, 173, 111, 188, 5, 211, 34, 189, 143, 56, 135, 61, 66, 126, 145, 61, 253, 46, 217, 188, 192, 86, 53, 188, 94, 233, 151, 61, 215, 242, 183, 188, 54, 122, 160, 60, 254, 138, 92, 61, 7, 5, 13, 189, 121, 127, 63, 189, 226, 209, 149, 61, 195, 250, 214, 60, 142, 32, 139, 189, 97, 187, 2, 189, 159, 77, 165, 187, 155, 170, 131, 189, 8, 98, 60, 61, 163, 38, 159, 60, 41, 175, 28, 61, 66, 206, 63, 189, 68, 102, 73, 61, 185, 60, 5, 189, 69, 54, 228, 59, 192, 19, 42, 187, 108, 3, 81, 189, 64, 10, 87, 60, 22, 145, 111, 189, 2, 19, 1, 61, 8, 251, 115, 187, 106, 130, 159, 188, 201, 212, 35, 189, 156, 25, 154, 188, 89, 234, 234, 60, 246, 244, 30, 189, 60, 240, 53, 59, 223, 183, 140, 61, 101, 95, 72, 61, 93, 222, 225, 60, 3, 242, 1, 188, 203, 210, 159, 187, 231, 131, 140, 187, 163, 108, 15, 61, 195, 56, 7, 60, 68, 53, 119, 188, 25, 160, 39, 188, 25, 184, 25, 189, 177, 187, 197, 60, 177, 177, 90, 189, 121, 26, 15, 189, 118, 112, 99, 187, 36, 101, 132, 61, 237, 21, 14, 60, 57, 227, 230, 187, 159, 22, 92, 189, 228, 216, 109, 189, 200, 42, 28, 189, 16, 117, 243, 188, 72, 157, 95, 188, 251, 188, 67, 188, 8, 176, 51, 61, 49, 152, 89, 61, 28, 230, 41, 61, 247, 185, 74, 188, 102, 147, 108, 189, 250, 126, 82, 187, 18, 22, 77, 61, 242, 207, 50, 61, 100, 43, 71, 189, 42, 106, 171, 188, 112, 226, 177, 60, 156, 190, 162, 60, 33, 103, 35, 61, 27, 84, 130, 61, 67, 221, 77, 59, 238, 104, 162, 187, 105, 182, 82, 189, 125, 169, 0, 60, 31, 247, 12, 189, 244, 217, 110, 189, 231, 1, 6, 60, 15, 118, 122, 189, 253, 37, 99, 61, 246, 96, 137, 60, 6, 170, 84, 61, 164, 13, 82, 189, 39, 244, 195, 60, 115, 4, 22, 61, 237, 31, 119, 61, 48, 113, 47, 189, 100, 133, 111, 61, 115, 53, 130, 189, 70, 152, 68, 61, 174, 193, 76, 189, 111, 120, 90, 187, 42, 167, 135, 189, 200, 149, 37, 189, 68, 32, 144, 188, 69, 185, 56, 61, 188, 53, 61, 189, 104, 198, 218, 60, 234, 162, 83, 61, 153, 10, 206, 188, 13, 155, 33, 61, 2, 120, 141, 59, 202, 205, 108, 189, 5, 121, 36, 188, 19, 39, 43, 61, 135, 168, 120, 189, 86, 227, 237, 188, 111, 216, 168, 60, 188, 184, 72, 189, 10, 176, 25, 189, 175, 26, 9, 189, 21, 245, 121, 61, 122, 244, 131, 59, 109, 237, 127, 61, 104, 184, 78, 61, 219, 102, 22, 61, 139, 196, 142, 188, 131, 142, 180, 188, 35, 66, 210, 59, 82, 250, 114, 61, 160, 239, 106, 61, 190, 37, 172, 188, 136, 22, 147, 189, 187, 163, 115, 61, 74, 73, 107, 189, 209, 183, 135, 189, 189, 79, 76, 59, 196, 174, 21, 189, 253, 109, 231, 60, 144, 199, 70, 189, 127, 9, 210, 188, 126, 44, 183, 59, 27, 100, 172, 60, 2, 201, 56, 61, 44, 52, 56, 188, 98, 53, 82, 61, 60, 27, 246, 188, 164, 145, 205, 188, 198, 147, 82, 61, 135, 252, 77, 189, 67, 50, 45, 189, 151, 113, 211, 57, 238, 254, 89, 61, 70, 149, 200, 60, 98, 123, 52, 61, 46, 215, 218, 59, 246, 136, 177, 60, 194, 249, 112, 61, 197, 151, 134, 61, 117, 65, 216, 60, 133, 33, 26, 61, 124, 25, 24, 61, 53, 131, 130, 61, 199, 49, 45, 61, 107, 205, 0, 61, 72, 32, 9, 189, 222, 227, 40, 189, 216, 204, 142, 189, 180, 178, 131, 61, 17, 188, 130, 61, 8, 245, 64, 61, 106, 46, 198, 188, 213, 66, 158, 188, 109, 125, 0, 58, 115, 115, 113, 189, 167, 139, 191, 60, 197, 164, 38, 60, 57, 27, 217, 60, 45, 243, 138, 61, 252, 131, 234, 60, 38, 111, 49, 61, 179, 219, 32, 189, 192, 211, 145, 60, 115, 194, 223, 60, 114, 115, 228, 188, 172, 178, 227, 60, 25, 40, 47, 61, 30, 148, 62, 189, 95, 215, 97, 188, 134, 84, 235, 60, 77, 153, 40, 61, 1, 98, 107, 61, 109, 243, 78, 61, 84, 105, 222, 60, 90, 67, 140, 189, 170, 73, 4, 189, 10, 62, 21, 61, 240, 108, 84, 61, 148, 56, 53, 61, 80, 147, 28, 189, 145, 6, 1, 61, 13, 21, 27, 61, 213, 221, 135, 60, 184, 138, 96, 189, 237, 17, 104, 60, 134, 135, 51, 189, 215, 165, 138, 189, 27, 182, 95, 61, 121, 238, 50, 61, 34, 167, 145, 59, 248, 88, 254, 188, 213, 164, 82, 61, 244, 183, 98, 59, 226, 176, 72, 61, 115, 120, 13, 189, 94, 145, 103, 61, 34, 173, 56, 61, 137, 216, 130, 189, 217, 230, 107, 189, 221, 213, 73, 189, 58, 253, 50, 61, 68, 24, 7, 61, 46, 218, 132, 60, 11, 151, 155, 61, 0, 60, 81, 58, 66, 90, 123, 60, 236, 5, 65, 189, 159, 77, 13, 189, 27, 197, 69, 57, 128, 57, 122, 60, 238, 214, 50, 189, 132, 101, 108, 189, 225, 32, 3, 60, 151, 161, 166, 188, 183, 82, 229, 60, 241, 3, 78, 61, 180, 224, 94, 61, 233, 62, 49, 61, 211, 177, 1, 189, 121, 185, 131, 61, 33, 207, 86, 189, 164, 39, 56, 61, 229, 22, 46, 61, 202, 66, 131, 189, 95, 139, 78, 59, 216, 201, 159, 188, 180, 177, 194, 188, 69, 142, 68, 61, 103, 57, 95, 61, 117, 208, 48, 61, 54, 62, 214, 188, 123, 253, 98, 61, 194, 35, 40, 189, 110, 21, 183, 59, 40, 206, 90, 189, 198, 245, 88, 61, 208, 10, 7, 61, 233, 1, 34, 188, 84, 255, 37, 188, 154, 237, 66, 188, 67, 148, 67, 189, 10, 220, 226, 188, 46, 248, 147, 189, 77, 248, 62, 61, 176, 250, 87, 60, 227, 66, 139, 60, 203, 129, 113, 60, 34, 147, 129, 188, 136, 41, 22, 58, 33, 110, 152, 188, 232, 66, 191, 188, 217, 125, 154, 60, 206, 23, 80, 61, 192, 205, 129, 61, 69, 197, 135, 189, 81, 22, 43, 61, 208, 162, 115, 61, 141, 64, 158, 59, 97, 38, 107, 59, 154, 18, 54, 60, 53, 0, 166, 186, 208, 172, 28, 189, 153, 156, 80, 61, 94, 109, 231, 60, 116, 47, 129, 58, 197, 75, 35, 188, 46, 78, 195, 188, 82, 162, 8, 60, 178, 175, 163, 59, 95, 191, 66, 189, 123, 0, 19, 61, 159, 98, 254, 188, 220, 230, 49, 189, 214, 35, 194, 188, 244, 18, 16, 188, 194, 75, 99, 61, 242, 190, 58, 60, 200, 106, 43, 61, 101, 170, 169, 188, 116, 157, 112, 61, 23, 60, 190, 188, 102, 179, 91, 189, 100, 78, 52, 188, 240, 155, 92, 58, 75, 43, 8, 188, 244, 144, 247, 60, 122, 14, 59, 189, 239, 71, 56, 188, 89, 137, 97, 60, 237, 52, 151, 188, 201, 239, 101, 189, 87, 205, 10, 189, 99, 160, 13, 189, 238, 182, 130, 187, 214, 120, 105, 189, 67, 204, 189, 188, 183, 56, 64, 189, 60, 158, 26, 187, 148, 179, 152, 189, 138, 62, 113, 189, 127, 117, 40, 187, 231, 217, 22, 61, 223, 239, 245, 57, 67, 180, 200, 59, 174, 218, 24, 189, 141, 8, 37, 58, 39, 239, 60, 61, 12, 90, 164, 187, 65, 167, 105, 61, 142, 88, 183, 188, 115, 89, 34, 60, 192, 73, 138, 60, 29, 181, 117, 61, 122, 42, 16, 189, 145, 73, 57, 61, 158, 122, 140, 189, 2, 67, 224, 188, 173, 233, 144, 188, 12, 70, 206, 188, 36, 164, 182, 188, 10, 87, 122, 188, 240, 8, 61, 189, 222, 72, 133, 189, 206, 75, 168, 188, 32, 1, 136, 189, 217, 41, 17, 189, 5, 22, 42, 61, 111, 168, 249, 60, 14, 171, 24, 189, 141, 34, 163, 60, 142, 78, 211, 188, 245, 124, 209, 188, 35, 177, 60, 61, 208, 136, 100, 189, 58, 29, 60, 189, 65, 45, 75, 61, 109, 66, 148, 189, 58, 197, 127, 188, 122, 132, 21, 189, 216, 224, 29, 60, 73, 88, 227, 186, 227, 200, 48, 189, 8, 142, 230, 60, 147, 120, 175, 188, 53, 158, 27, 189, 81, 152, 136, 59, 91, 35, 85, 189, 160, 128, 15, 61, 188, 125, 49, 189, 253, 82, 70, 188, 15, 207, 198, 188, 220, 32, 131, 189, 146, 212, 175, 188, 213, 186, 109, 188, 21, 109, 157, 188, 25, 187, 252, 187, 4, 16, 68, 189, 203, 28, 78, 189, 248, 157, 82, 61, 204, 135, 6, 189, 212, 161, 76, 189, 93, 207, 13, 187, 104, 179, 61, 61, 0, 18, 114, 189, 55, 8, 41, 60, 219, 72, 129, 188, 179, 42, 39, 59, 27, 189, 5, 60, 123, 60, 111, 60, 20, 151, 45, 189, 238, 243, 16, 188, 183, 178, 53, 61, 133, 91, 43, 61, 150, 68, 71, 188, 190, 76, 159, 60, 0, 83, 71, 59, 31, 145, 89, 61, 37, 168, 255, 59, 223, 129, 89, 61, 87, 235, 198, 187, 120, 30, 106, 189, 51, 31, 77, 189, 5, 158, 171, 188, 226, 93, 19, 59, 55, 184, 6, 189, 60, 171, 46, 60, 231, 247, 66, 61, 249, 157, 242, 60, 54, 224, 202, 188, 122, 132, 65, 189, 87, 24, 94, 60, 15, 68, 229, 59, 84, 214, 28, 189, 16, 129, 204, 59, 96, 54, 23, 189, 113, 7, 74, 61, 106, 78, 165, 60, 152, 2, 140, 189, 165, 193, 229, 188, 83, 200, 12, 61, 163, 203, 6, 189, 29, 110, 236, 60, 15, 251, 223, 60, 136, 64, 207, 188, 156, 250, 8, 188, 228, 82, 25, 189, 139, 116, 217, 188, 117, 44, 212, 188, 251, 213, 47, 189, 166, 100, 131, 189, 95, 110, 58, 189, 35, 226, 12, 60, 72, 52, 22, 189, 106, 175, 59, 188, 97, 231, 78, 61, 136, 151, 94, 189, 78, 98, 130, 60, 20, 115, 65, 59, 49, 187, 24, 61, 173, 218, 78, 61, 8, 72, 63, 189, 205, 8, 129, 186, 56, 122, 255, 59, 80, 133, 51, 189, 54, 112, 60, 61, 88, 203, 236, 188, 118, 55, 21, 61, 93, 68, 84, 61, 202, 33, 133, 187, 212, 204, 91, 189, 101, 22, 32, 61, 33, 21, 70, 189, 160, 224, 110, 187, 184, 10, 60, 187, 65, 226, 90, 61, 90, 192, 82, 189, 202, 218, 68, 189, 167, 29, 101, 60, 59, 218, 157, 60, 138, 52, 147, 59, 81, 65, 58, 61, 43, 79, 249, 58, 34, 88, 91, 189, 121, 30, 114, 61, 242, 167, 222, 60, 212, 200, 24, 61, 217, 205, 223, 188, 59, 100, 6, 60, 64, 204, 23, 189, 195, 26, 49, 189, 150, 231, 107, 61, 190, 80, 29, 61, 126, 30, 140, 189, 170, 216, 141, 61, 84, 8, 52, 187, 63, 161, 134, 61, 85, 84, 123, 61, 12, 8, 59, 61, 35, 102, 42, 61, 151, 233, 187, 188, 239, 83, 152, 60, 160, 127, 68, 187, 44, 180, 133, 61, 180, 77, 205, 187, 54, 216, 158, 188, 218, 252, 72, 189, 52, 199, 83, 61, 254, 101, 8, 189, 245, 111, 41, 189, 66, 183, 2, 60, 11, 235, 9, 188, 120, 81, 63, 59, 73, 78, 75, 188, 1, 196, 8, 61, 1, 62, 66, 189, 148, 9, 209, 60, 33, 32, 88, 60, 139, 178, 214, 188, 104, 218, 76, 188, 152, 85, 105, 189, 89, 204, 78, 189, 53, 181, 93, 188, 149, 97, 58, 189, 178, 110, 140, 61, 143, 230, 107, 189, 165, 117, 255, 188, 119, 109, 205, 188, 170, 108, 181, 60, 210, 169, 127, 61, 189, 123, 5, 189, 208, 131, 228, 59, 125, 17, 134, 188, 98, 152, 221, 188, 243, 132, 144, 60, 46, 200, 113, 188, 85, 203, 33, 61, 99, 164, 77, 61, 35, 118, 79, 60, 61, 91, 87, 189, 179, 156, 5, 188, 24, 227, 97, 61, 102, 180, 3, 189, 204, 53, 152, 189, 138, 1, 202, 60, 196, 24, 237, 188, 5, 147, 129, 59, 249, 249, 33, 60, 83, 51, 37, 188, 79, 25, 222, 188, 193, 87, 143, 189, 24, 74, 111, 60, 94, 38, 149, 60, 8, 83, 1, 61, 203, 28, 175, 60, 74, 154, 251, 60, 217, 56, 20, 188, 39, 163, 37, 189, 76, 230, 117, 61, 176, 90, 142, 189, 203, 224, 30, 188, 188, 33, 14, 189, 199, 218, 7, 61, 131, 19, 66, 189, 194, 50, 107, 189, 18, 64, 71, 61, 244, 33, 105, 189, 27, 194, 68, 189, 115, 232, 65, 189, 156, 118, 43, 61, 3, 152, 42, 189, 134, 44, 41, 189, 46, 71, 112, 61, 43, 245, 233, 187, 115, 192, 182, 188, 86, 124, 16, 188, 190, 132, 36, 189, 2, 217, 35, 61, 246, 99, 189, 60, 168, 50, 45, 59, 73, 16, 98, 61, 47, 209, 6, 189, 87, 37, 7, 61, 64, 141, 25, 60, 212, 155, 37, 189, 69, 186, 118, 61, 1, 36, 182, 60, 164, 119, 34, 61, 195, 111, 69, 61, 3, 234, 136, 189, 251, 82, 92, 187, 18, 158, 10, 189, 179, 100, 23, 189, 102, 250, 76, 60, 57, 220, 88, 189, 75, 118, 212, 188, 177, 96, 108, 60, 31, 119, 208, 60, 132, 183, 90, 61, 84, 180, 1, 61, 146, 251, 120, 189, 77, 18, 77, 61, 185, 217, 217, 60, 48, 218, 61, 61, 6, 188, 51, 189, 187, 110, 102, 60, 255, 68, 7, 189, 87, 14, 209, 60, 169, 144, 201, 187, 72, 112, 92, 60, 191, 155, 214, 188, 66, 228, 30, 189, 180, 212, 63, 61, 21, 129, 23, 61, 73, 78, 211, 188, 28, 183, 133, 61, 224, 95, 64, 189, 175, 78, 93, 61, 109, 233, 3, 188, 131, 191, 33, 189, 181, 53, 0, 60, 96, 43, 194, 188, 56, 255, 12, 189, 120, 5, 1, 187, 78, 191, 228, 60, 58, 29, 130, 188, 80, 83, 17, 189, 68, 152, 104, 61, 43, 22, 224, 188, 138, 249, 67, 189, 191, 86, 131, 189, 111, 152, 105, 189, 117, 210, 111, 188, 125, 11, 10, 61, 79, 119, 217, 59, 218, 11, 25, 189, 196, 201, 115, 189, 135, 201, 71, 189, 147, 161, 74, 189, 224, 244, 39, 189, 130, 155, 13, 185, 64, 104, 68, 189, 109, 102, 107, 61, 79, 236, 97, 61, 152, 205, 114, 61, 116, 125, 92, 60, 50, 3, 18, 189, 78, 29, 20, 60, 133, 17, 94, 61, 87, 118, 29, 189, 93, 141, 15, 61, 54, 47, 134, 189, 103, 68, 36, 188, 224, 95, 147, 58, 51, 103, 120, 189, 95, 94, 134, 188, 4, 50, 104, 189, 124, 195, 143, 189, 12, 121, 151, 186, 200, 222, 97, 189, 98, 90, 70, 189, 122, 12, 238, 60, 9, 244, 32, 189, 208, 129, 70, 60, 146, 249, 17, 61, 189, 0, 125, 61, 116, 8, 29, 61, 148, 149, 126, 189, 218, 198, 78, 189, 138, 104, 15, 61, 24, 57, 128, 57, 191, 53, 212, 187, 13, 147, 182, 60, 134, 177, 103, 189, 191, 3, 114, 189, 138, 181, 108, 61, 91, 249, 117, 189, 76, 178, 188, 188, 230, 41, 144, 189, 93, 185, 193, 188, 185, 30, 68, 187, 76, 86, 53, 189, 18, 191, 76, 189, 3, 59, 15, 188, 125, 237, 112, 188, 123, 145, 34, 60, 39, 102, 87, 189, 78, 184, 49, 60, 118, 77, 149, 187, 5, 56, 81, 189, 100, 217, 3, 189, 211, 151, 49, 188, 194, 182, 90, 189, 162, 52, 221, 188, 182, 175, 137, 189, 96, 84, 145, 189, 131, 187, 66, 189, 134, 64, 181, 187, 194, 73, 0, 189, 28, 55, 152, 60, 162, 95, 112, 189, 55, 218, 7, 61, 223, 3, 4, 189, 47, 97, 218, 188, 216, 217, 198, 188, 13, 98, 140, 189, 27, 126, 174, 187, 11, 104, 225, 59, 213, 210, 90, 186, 184, 44, 124, 61, 166, 59, 198, 188, 127, 208, 152, 59, 5, 178, 103, 61, 98, 157, 141, 189, 156, 89, 192, 188, 198, 35, 103, 61, 100, 67, 58, 60, 176, 99, 70, 61, 214, 170, 136, 61, 157, 206, 216, 60, 200, 15, 142, 189, 16, 21, 252, 188, 173, 191, 145, 187, 6, 55, 131, 60, 241, 117, 35, 189, 95, 101, 132, 61, 46, 35, 104, 61, 124, 239, 87, 60, 26, 176, 238, 188, 149, 43, 230, 188, 157, 51, 104, 61, 125, 183, 5, 61, 33, 123, 72, 188, 176, 101, 44, 61, 196, 138, 1, 189, 112, 89, 99, 188, 64, 90, 129, 189, 199, 157, 196, 60, 84, 176, 163, 188, 234, 232, 113, 61, 248, 246, 169, 188, 213, 29, 111, 60, 230, 35, 141, 189, 249, 9, 144, 188, 189, 165, 113, 60, 61, 48, 10, 189, 159, 217, 87, 59, 158, 130, 71, 61, 45, 65, 93, 59, 185, 181, 136, 187, 19, 19, 130, 185, 35, 0, 51, 189, 207, 12, 133, 61, 99, 62, 131, 60, 37, 199, 143, 61, 178, 13, 148, 61, 86, 71, 2, 189, 52, 218, 182, 59, 104, 98, 230, 59, 56, 141, 72, 61, 185, 138, 129, 60, 181, 222, 213, 187, 46, 157, 4, 189, 212, 73, 243, 59, 40, 107, 18, 189, 202, 125, 125, 189, 157, 194, 76, 61, 197, 89, 105, 61, 40, 208, 206, 188, 52, 101, 79, 61, 253, 99, 79, 188, 61, 210, 18, 60, 55, 69, 109, 61, 139, 21, 41, 188, 106, 48, 220, 60, 232, 17, 31, 189, 110, 216, 88, 189, 70, 63, 139, 61, 31, 24, 23, 189, 211, 147, 177, 188, 60, 64, 145, 60, 243, 37, 118, 61, 193, 66, 226, 188, 71, 109, 110, 61, 195, 76, 52, 189, 188, 213, 77, 61, 177, 244, 119, 60, 56, 211, 114, 189, 119, 210, 79, 189, 254, 213, 64, 61, 53, 126, 153, 187, 238, 45, 119, 189, 169, 237, 188, 188, 133, 171, 229, 59, 148, 216, 114, 189, 23, 111, 164, 60, 44, 207, 104, 61, 130, 103, 246, 60, 23, 149, 15, 61, 95, 68, 134, 188, 147, 142, 9, 61, 250, 212, 197, 60, 141, 167, 117, 189, 99, 109, 112, 189, 162, 5, 143, 60, 185, 190, 72, 189, 180, 51, 142, 189, 139, 232, 238, 187, 43, 180, 48, 189, 9, 47, 96, 189, 184, 69, 85, 189, 145, 200, 15, 188, 73, 123, 1, 61, 239, 56, 131, 189, 96, 44, 145, 189, 130, 20, 29, 189, 197, 118, 18, 60, 55, 146, 45, 189, 211, 180, 2, 61, 245, 0, 129, 189, 147, 235, 2, 61, 49, 37, 186, 60, 151, 61, 130, 60, 52, 236, 114, 189, 91, 14, 196, 60, 86, 89, 241, 188, 27, 84, 163, 188, 44, 162, 22, 189, 185, 88, 47, 188, 128, 236, 133, 59, 248, 215, 24, 189, 90, 188, 134, 189, 155, 11, 83, 61, 199, 215, 18, 189, 212, 132, 5, 61, 67, 110, 118, 61, 68, 152, 127, 189, 109, 77, 222, 59, 182, 208, 103, 61, 208, 143, 133, 188, 82, 110, 91, 61, 202, 17, 57, 188, 112, 214, 130, 186, 236, 137, 69, 189, 98, 97, 127, 188, 29, 54, 0, 61, 123, 215, 6, 61, 28, 120, 7, 189, 86, 230, 44, 189, 127, 5, 139, 189, 185, 38, 109, 61, 21, 148, 55, 189, 8, 241, 36, 189, 223, 182, 1, 189, 97, 82, 137, 59, 77, 247, 174, 188, 140, 33, 193, 188, 204, 205, 67, 61, 138, 63, 148, 187, 252, 114, 99, 189, 188, 55, 36, 61, 96, 160, 218, 187, 218, 130, 134, 189, 140, 217, 115, 189, 198, 29, 36, 60, 102, 67, 150, 189, 92, 68, 5, 60, 55, 238, 111, 189, 103, 216, 203, 58, 67, 173, 244, 59, 32, 241, 9, 61, 127, 200, 38, 61, 26, 246, 190, 188, 209, 183, 116, 61, 33, 32, 162, 188, 92, 46, 142, 189, 190, 52, 211, 188, 63, 89, 130, 61, 138, 12, 154, 188, 54, 116, 135, 188, 116, 244, 122, 188, 175, 92, 41, 188, 148, 84, 235, 187, 149, 228, 41, 189, 83, 65, 59, 189, 125, 192, 76, 189, 230, 216, 115, 61, 129, 231, 141, 189, 114, 210, 169, 188, 18, 56, 110, 61, 61, 77, 248, 59, 4, 144, 126, 61, 241, 89, 52, 189, 24, 208, 40, 188, 228, 4, 45, 61, 197, 86, 113, 61, 103, 28, 38, 61, 0, 185, 154, 188, 21, 51, 124, 60, 25, 170, 43, 61, 215, 143, 118, 189, 237, 71, 14, 61, 181, 4, 149, 188, 179, 113, 44, 189, 44, 237, 101, 189, 203, 250, 37, 189, 89, 119, 110, 60, 10, 20, 113, 189, 60, 82, 18, 188, 112, 97, 29, 60, 53, 142, 9, 189, 80, 80, 70, 61, 235, 163, 214, 188, 117, 72, 72, 189, 49, 123, 212, 188, 191, 18, 62, 189, 154, 155, 43, 189, 189, 88, 49, 61, 59, 192, 17, 61, 138, 110, 110, 186, 156, 54, 171, 60, 253, 81, 226, 188, 56, 182, 49, 189, 121, 96, 39, 60, 56, 83, 162, 188, 122, 223, 116, 61, 109, 83, 5, 61, 253, 205, 197, 59, 240, 130, 147, 189, 109, 72, 97, 61, 170, 33, 125, 189, 176, 180, 137, 61, 35, 250, 146, 60, 118, 194, 73, 189, 187, 71, 27, 59, 114, 146, 100, 189, 202, 225, 182, 60, 85, 195, 52, 189, 189, 230, 177, 188, 156, 55, 7, 61, 36, 243, 80, 61, 68, 149, 79, 61, 83, 118, 97, 60, 44, 52, 51, 189, 227, 30, 225, 188, 185, 165, 169, 60, 42, 87, 13, 61, 101, 139, 95, 189, 4, 250, 43, 61, 237, 42, 2, 61, 118, 235, 143, 189, 236, 76, 44, 60, 144, 154, 56, 189, 93, 171, 202, 59, 91, 61, 231, 60, 37, 225, 92, 189, 19, 143, 147, 188, 219, 175, 189, 188, 149, 47, 0, 188, 86, 60, 34, 61, 82, 89, 133, 60, 185, 152, 87, 189, 247, 219, 204, 59, 241, 247, 226, 188, 93, 32, 148, 60, 230, 234, 211, 188, 237, 2, 16, 188, 85, 202, 1, 189, 69, 75, 15, 188, 116, 114, 156, 188, 209, 242, 0, 60, 33, 56, 18, 189, 110, 188, 117, 60, 83, 142, 47, 60, 147, 198, 53, 61, 184, 84, 47, 61, 83, 190, 94, 189, 89, 106, 65, 61, 18, 232, 137, 188, 212, 55, 30, 189, 222, 13, 42, 189, 175, 17, 78, 189, 54, 178, 73, 188, 134, 197, 149, 189, 15, 51, 169, 188, 147, 229, 238, 188, 242, 149, 44, 188, 253, 51, 76, 189, 162, 202, 31, 61, 72, 6, 195, 187, 196, 122, 202, 60, 179, 159, 124, 189, 211, 141, 142, 189, 193, 59, 11, 189, 149, 141, 43, 189, 8, 49, 13, 189, 181, 67, 53, 61, 235, 82, 159, 188, 106, 93, 147, 188, 230, 112, 15, 188, 200, 90, 141, 60, 57, 150, 98, 61, 78, 81, 49, 189, 249, 252, 56, 61, 52, 69, 106, 61, 235, 36, 108, 189, 234, 172, 14, 189, 188, 143, 153, 188, 191, 70, 28, 189, 121, 252, 177, 58, 176, 195, 7, 189, 176, 56, 18, 60, 104, 93, 69, 61, 65, 77, 70, 188, 70, 125, 233, 60, 196, 126, 101, 189, 183, 71, 237, 60, 72, 34, 69, 61, 115, 183, 175, 188, 192, 144, 142, 60, 160, 253, 239, 188, 189, 49, 84, 189, 195, 245, 137, 188, 159, 222, 212, 60, 158, 147, 89, 189, 203, 67, 77, 189, 73, 105, 42, 189, 144, 41, 39, 189, 112, 40, 249, 60, 29, 91, 42, 60, 40, 135, 254, 60, 189, 50, 133, 61, 104, 13, 42, 189, 174, 249, 106, 61, 119, 215, 135, 189, 48, 19, 199, 188, 158, 11, 207, 188, 130, 124, 3, 188, 126, 36, 240, 186, 66, 34, 209, 186, 5, 95, 136, 189, 97, 187, 24, 189, 31, 201, 243, 187, 59, 66, 222, 60, 215, 235, 80, 189, 129, 239, 96, 189, 108, 95, 2, 189, 142, 186, 250, 188, 48, 110, 64, 189, 225, 44, 132, 189, 102, 79, 96, 189, 235, 68, 203, 60, 69, 178, 218, 60, 204, 158, 197, 60, 43, 96, 106, 188, 107, 120, 119, 189, 156, 161, 50, 189, 253, 225, 59, 60, 173, 21, 241, 60, 27, 194, 58, 61, 151, 119, 21, 61, 121, 152, 239, 187, 39, 118, 44, 189, 71, 178, 231, 60, 74, 93, 150, 188, 181, 146, 63, 61, 13, 31, 124, 189, 102, 129, 80, 61, 125, 205, 145, 189, 205, 90, 32, 61, 65, 18, 4, 58, 92, 103, 102, 61, 156, 104, 95, 61, 218, 138, 3, 61, 138, 13, 28, 61, 90, 18, 135, 61, 216, 37, 104, 189, 135, 86, 113, 188, 109, 71, 137, 188, 34, 49, 131, 189, 227, 20, 167, 60, 174, 132, 66, 189, 82, 127, 2, 188, 177, 104, 65, 61, 200, 92, 42, 61, 118, 163, 11, 61, 141, 159, 130, 61, 211, 204, 176, 59, 181, 87, 66, 188, 218, 249, 7, 61, 35, 215, 213, 58, 32, 177, 174, 188, 235, 213, 17, 61, 153, 14, 216, 187, 155, 106, 227, 188, 105, 74, 8, 189, 245, 56, 151, 189, 41, 180, 224, 60, 189, 105, 127, 188, 178, 97, 116, 189, 149, 79, 57, 61, 172, 121, 106, 188, 164, 247, 41, 61, 207, 41, 145, 188, 162, 197, 99, 61, 76, 21, 112, 189, 75, 33, 65, 61, 102, 149, 95, 61, 140, 94, 19, 189, 140, 110, 187, 188, 48, 124, 201, 188, 107, 3, 31, 189, 112, 250, 109, 57, 217, 55, 10, 61, 164, 26, 82, 188, 182, 160, 145, 189, 195, 12, 7, 61, 221, 206, 64, 61, 255, 210, 30, 188, 9, 208, 131, 61, 43, 227, 48, 189, 51, 239, 90, 189, 251, 55, 59, 61, 34, 75, 134, 61, 125, 156, 23, 61, 8, 15, 12, 189, 211, 254, 34, 61, 237, 147, 99, 189, 107, 43, 98, 187, 129, 128, 110, 189, 56, 251, 107, 61, 30, 85, 15, 189, 24, 53, 12, 61, 167, 4, 216, 187, 32, 110, 227, 60, 113, 106, 129, 189, 180, 52, 181, 188, 239, 204, 169, 60, 179, 244, 86, 189, 180, 14, 1, 189, 227, 100, 137, 61, 135, 246, 46, 61, 99, 160, 79, 189, 29, 143, 155, 188, 171, 10, 58, 60, 156, 247, 87, 189, 69, 120, 10, 61, 206, 164, 184, 60, 145, 177, 126, 61, 81, 42, 88, 61, 96, 204, 170, 188, 45, 54, 23, 189, 187, 98, 88, 61, 9, 179, 45, 189, 144, 33, 18, 60, 24, 33, 14, 61, 103, 146, 69, 59, 101, 247, 44, 61, 101, 178, 42, 189, 14, 70, 132, 61, 240, 135, 15, 61, 170, 103, 251, 187, 255, 19, 73, 189, 83, 176, 52, 61, 171, 70, 126, 189, 218, 52, 214, 188, 8, 72, 61, 189, 7, 54, 206, 60, 43, 122, 152, 60, 234, 253, 71, 188, 109, 253, 59, 61, 218, 49, 72, 61, 193, 161, 45, 189, 126, 179, 35, 60, 18, 166, 128, 188, 237, 11, 166, 188, 90, 49, 121, 189, 251, 190, 209, 60, 205, 208, 83, 59, 192, 126, 42, 189, 79, 152, 33, 61, 185, 78, 72, 61, 181, 190, 72, 189, 219, 236, 171, 187, 64, 218, 65, 189, 115, 28, 75, 61, 21, 136, 136, 61, 124, 205, 113, 189, 151, 29, 141, 60, 29, 91, 82, 61, 7, 120, 230, 60, 134, 69, 116, 189, 192, 132, 135, 189, 213, 25, 89, 60, 126, 211, 130, 189, 204, 173, 157, 188, 57, 188, 214, 60, 230, 163, 105, 61, 0, 1, 139, 189, 241, 158, 88, 188, 125, 194, 113, 61, 22, 194, 99, 61, 119, 222, 30, 61, 55, 171, 35, 61, 64, 238, 27, 61, 89, 237, 1, 188, 250, 254, 194, 188, 50, 151, 32, 61, 70, 164, 92, 61, 7, 178, 53, 188, 195, 220, 21, 61, 88, 128, 103, 189, 222, 237, 42, 189, 30, 141, 160, 60, 200, 247, 208, 188, 239, 38, 34, 189, 173, 46, 27, 189, 242, 168, 142, 188, 25, 194, 217, 60, 118, 244, 12, 189, 145, 207, 190, 188, 72, 206, 90, 189, 211, 183, 79, 61, 237, 129, 92, 189, 223, 93, 165, 60, 198, 39, 81, 61, 183, 63, 64, 60, 120, 133, 51, 189, 199, 110, 181, 187, 30, 76, 23, 61, 27, 235, 164, 60, 175, 188, 188, 188, 230, 221, 46, 61, 107, 20, 117, 187, 136, 69, 66, 60, 27, 52, 235, 188, 24, 99, 138, 189, 93, 10, 140, 189, 56, 236, 9, 188, 160, 192, 217, 188, 48, 129, 4, 61, 184, 73, 116, 189, 26, 178, 222, 187, 37, 235, 101, 189, 130, 122, 100, 61, 232, 182, 162, 188, 140, 143, 88, 189, 48, 11, 100, 61, 158, 78, 177, 188, 20, 65, 87, 189, 68, 211, 230, 188, 75, 203, 57, 59, 23, 222, 141, 189, 105, 251, 22, 188, 190, 51, 200, 60, 177, 63, 242, 188, 227, 69, 98, 61, 69, 91, 48, 61, 101, 8, 109, 60, 31, 28, 67, 60, 150, 14, 223, 60, 172, 76, 24, 59, 43, 59, 101, 189, 143, 185, 129, 61, 242, 124, 145, 189, 94, 17, 134, 189, 224, 92, 52, 61, 207, 19, 214, 58, 67, 185, 161, 188, 111, 189, 78, 61, 186, 4, 128, 61, 82, 164, 116, 189, 252, 51, 102, 189, 61, 21, 17, 189, 83, 98, 165, 188, 17, 38, 140, 189, 82, 26, 38, 61, 235, 74, 137, 189, 4, 171, 147, 60, 168, 72, 120, 188, 245, 99, 196, 60, 245, 21, 45, 189, 147, 186, 64, 61, 201, 103, 24, 61, 99, 155, 121, 61, 103, 56, 241, 60, 38, 44, 133, 189, 189, 160, 157, 60, 152, 6, 32, 61, 33, 58, 42, 188, 66, 159, 34, 61, 102, 238, 113, 188, 70, 43, 30, 61, 205, 14, 220, 188, 173, 97, 167, 60, 57, 51, 179, 60, 226, 61, 208, 188, 156, 55, 80, 57, 124, 20, 159, 187, 74, 140, 113, 61, 80, 245, 53, 189, 205, 163, 231, 188, 113, 122, 144, 55, 191, 38, 183, 187, 127, 97, 168, 59, 129, 73, 147, 188, 212, 193, 158, 60, 130, 142, 163, 188, 194, 99, 138, 189, 130, 80, 44, 61, 224, 223, 8, 188, 96, 8, 132, 61, 25, 171, 191, 60, 29, 8, 62, 187, 112, 126, 106, 189, 197, 29, 222, 188, 52, 120, 123, 189, 253, 250, 134, 61, 144, 65, 61, 189, 141, 58, 117, 189, 51, 25, 235, 186, 61, 61, 137, 61, 114, 209, 15, 189, 14, 125, 128, 61, 94, 39, 2, 187, 172, 16, 0, 188, 209, 180, 102, 61, 135, 103, 76, 61, 189, 39, 6, 189, 114, 116, 131, 189, 154, 234, 109, 189, 56, 42, 254, 188, 22, 121, 4, 61, 118, 73, 43, 189, 247, 64, 182, 60, 18, 43, 131, 61, 103, 22, 10, 61, 122, 247, 100, 61, 96, 10, 233, 58, 130, 32, 113, 61, 100, 136, 104, 188, 142, 177, 41, 61, 31, 69, 82, 189, 249, 218, 40, 61, 130, 197, 17, 61, 229, 80, 126, 189, 241, 125, 76, 61, 110, 9, 195, 186, 176, 245, 205, 188, 151, 226, 54, 61, 241, 68, 44, 189, 149, 158, 119, 61, 35, 86, 137, 60, 22, 76, 135, 189, 157, 119, 119, 61, 34, 119, 207, 60, 56, 254, 130, 60, 62, 192, 117, 189, 92, 41, 123, 61, 244, 27, 55, 61, 63, 132, 139, 189, 100, 72, 213, 188, 126, 75, 104, 61, 80, 204, 26, 189, 27, 24, 115, 61, 209, 60, 114, 189, 40, 195, 12, 61, 216, 230, 34, 189, 203, 44, 4, 189, 193, 12, 146, 189, 169, 242, 96, 61, 2, 217, 97, 189, 32, 92, 235, 187, 245, 22, 94, 60, 201, 108, 116, 61, 165, 227, 13, 189, 178, 47, 18, 189, 224, 221, 183, 188, 36, 144, 132, 188, 226, 95, 153, 59, 93, 180, 181, 188, 140, 85, 99, 61, 145, 149, 197, 188, 91, 47, 101, 61, 93, 251, 148, 60, 179, 186, 93, 61, 215, 214, 77, 60, 140, 40, 98, 59, 143, 141, 36, 189, 92, 143, 107, 61, 19, 237, 4, 189, 93, 197, 65, 189, 55, 169, 131, 188, 172, 176, 12, 61, 161, 249, 90, 61, 176, 33, 30, 60, 54, 126, 140, 187, 95, 9, 4, 189, 219, 134, 151, 188, 28, 168, 43, 61, 32, 138, 181, 187, 184, 40, 157, 188, 71, 135, 92, 189, 99, 63, 150, 188, 207, 114, 54, 61, 93, 221, 251, 188, 0, 56, 188, 60, 88, 96, 58, 189, 161, 123, 246, 59, 26, 213, 111, 189, 253, 71, 130, 61, 24, 40, 31, 61, 159, 240, 127, 60, 29, 128, 9, 187, 250, 239, 119, 189, 88, 202, 99, 188, 66, 24, 93, 189, 97, 186, 108, 189, 199, 17, 99, 189, 229, 111, 192, 60, 133, 254, 132, 189, 240, 217, 14, 59, 174, 200, 96, 61, 151, 29, 73, 189, 76, 64, 82, 189, 237, 172, 50, 188, 254, 243, 144, 56, 1, 172, 99, 61, 225, 193, 86, 186, 174, 202, 25, 61, 160, 154, 57, 61, 138, 41, 4, 189, 8, 105, 22, 188, 67, 86, 216, 187, 20, 160, 128, 189, 134, 4, 9, 189, 104, 96, 30, 61, 207, 226, 196, 188, 25, 61, 90, 188, 147, 132, 157, 188, 178, 12, 71, 186, 21, 57, 248, 188, 67, 14, 96, 61, 127, 197, 101, 60, 171, 129, 7, 61, 151, 52, 101, 60, 109, 42, 55, 189, 31, 236, 116, 61, 175, 132, 54, 60, 96, 250, 50, 61, 230, 124, 121, 189, 109, 239, 0, 61, 68, 88, 5, 188, 128, 173, 139, 188, 196, 84, 35, 60, 126, 148, 59, 61, 206, 99, 131, 189, 237, 186, 100, 61, 118, 112, 139, 60, 194, 12, 15, 61, 239, 217, 20, 61, 14, 201, 3, 59, 235, 169, 14, 59, 62, 0, 200, 188, 211, 24, 41, 61, 196, 45, 62, 189, 75, 166, 30, 61, 218, 54, 4, 189, 56, 205, 96, 61, 243, 53, 127, 189, 223, 22, 181, 188, 45, 90, 146, 189, 176, 150, 34, 61, 69, 77, 227, 60, 106, 213, 124, 189, 173, 2, 185, 58, 67, 53, 232, 188, 120, 159, 169, 188, 240, 27, 75, 186, 38, 124, 111, 189, 11, 56, 0, 61, 87, 52, 13, 189, 176, 248, 206, 60, 68, 60, 37, 189, 151, 23, 223, 60, 248, 250, 52, 61, 236, 80, 10, 61, 242, 14, 68, 189, 219, 26, 129, 61, 179, 254, 48, 60, 168, 43, 29, 189, 25, 159, 105, 189, 183, 125, 212, 188, 119, 218, 151, 58, 230, 122, 135, 60, 240, 231, 94, 188, 80, 41, 48, 188, 143, 234, 126, 189, 197, 226, 100, 189, 16, 222, 66, 61, 196, 234, 3, 61, 197, 85, 95, 60, 92, 209, 114, 61, 222, 185, 48, 61, 197, 229, 89, 61, 194, 135, 186, 60, 175, 111, 194, 60, 201, 35, 12, 189, 182, 163, 178, 186, 163, 148, 61, 188, 63, 4, 69, 61, 114, 239, 10, 61, 29, 113, 122, 61, 221, 185, 96, 59, 66, 102, 95, 60, 9, 163, 30, 189, 198, 14, 45, 188, 156, 146, 186, 60, 104, 175, 51, 189, 221, 170, 120, 61, 172, 204, 171, 60, 44, 43, 74, 61, 67, 36, 151, 188, 190, 249, 98, 189, 180, 147, 75, 59, 63, 21, 58, 189, 37, 9, 132, 189, 145, 110, 44, 189, 155, 72, 129, 189, 148, 223, 254, 188, 147, 82, 130, 189, 225, 93, 166, 60, 191, 85, 170, 59, 20, 21, 48, 188, 152, 21, 114, 188, 223, 146, 46, 189, 202, 189, 61, 188, 93, 98, 239, 60, 215, 251, 42, 60, 245, 138, 132, 61, 182, 6, 18, 189, 133, 61, 134, 189, 219, 29, 139, 189, 185, 140, 248, 60, 63, 99, 82, 60, 168, 125, 146, 188, 6, 181, 14, 189, 111, 71, 133, 189, 225, 197, 43, 189, 208, 128, 125, 61, 93, 158, 203, 60, 167, 50, 44, 189, 215, 65, 30, 61, 175, 235, 110, 59, 21, 115, 60, 189, 90, 173, 83, 188, 34, 113, 127, 189, 116, 119, 160, 187, 175, 111, 192, 60, 21, 138, 133, 61, 4, 135, 109, 189, 251, 31, 135, 186, 17, 152, 163, 60, 12, 28, 147, 189, 148, 138, 221, 60, 29, 230, 112, 61, 56, 14, 241, 60, 221, 178, 187, 60, 67, 204, 72, 189, 45, 103, 143, 189, 52, 5, 177, 59, 66, 8, 226, 188, 239, 141, 56, 61, 30, 62, 157, 188, 211, 194, 33, 61, 112, 169, 116, 188, 185, 168, 69, 188, 58, 122, 30, 188, 192, 130, 7, 189, 87, 71, 156, 60, 89, 113, 172, 60, 144, 128, 39, 60, 89, 159, 58, 189, 140, 219, 204, 186, 218, 114, 232, 188, 28, 2, 180, 188, 76, 114, 68, 189, 217, 239, 108, 61, 87, 47, 138, 61, 216, 104, 88, 61, 80, 66, 124, 189, 90, 248, 0, 60, 143, 106, 217, 187, 76, 152, 242, 187, 8, 40, 106, 189, 124, 237, 174, 186, 58, 28, 158, 188, 94, 122, 118, 186, 119, 203, 18, 187, 8, 209, 147, 189, 229, 84, 7, 60, 240, 230, 71, 61, 221, 242, 164, 188, 100, 223, 51, 189, 49, 74, 235, 60, 39, 85, 254, 188, 42, 115, 120, 58, 44, 251, 228, 188, 7, 169, 238, 59, 205, 0, 137, 189, 58, 236, 117, 61, 33, 110, 36, 61, 203, 81, 42, 61, 157, 184, 105, 61, 228, 246, 147, 189, 39, 64, 104, 189, 237, 156, 79, 61, 44, 128, 68, 61, 44, 180, 248, 187, 142, 39, 87, 61, 34, 240, 62, 60, 86, 195, 58, 189, 144, 164, 26, 60, 185, 189, 28, 61, 233, 234, 105, 189, 75, 18, 147, 189, 128, 68, 8, 189, 20, 232, 252, 60, 117, 202, 108, 188, 240, 87, 21, 61, 8, 170, 252, 60, 74, 63, 72, 189, 13, 115, 226, 58, 163, 149, 119, 189, 73, 154, 29, 188, 219, 146, 113, 189, 77, 122, 170, 60, 174, 187, 98, 188, 240, 70, 54, 61, 219, 163, 187, 188, 173, 69, 30, 189, 208, 0, 51, 61, 232, 98, 67, 189, 100, 54, 141, 60, 232, 139, 133, 189, 248, 242, 193, 188, 50, 2, 44, 189, 96, 132, 64, 189, 224, 132, 24, 61, 68, 86, 34, 189, 68, 73, 97, 189, 110, 29, 40, 189, 130, 79, 138, 59, 86, 57, 84, 189, 30, 69, 113, 189, 191, 255, 83, 60, 109, 163, 114, 61, 117, 98, 31, 189, 208, 21, 56, 60, 23, 157, 198, 188, 180, 141, 55, 189, 212, 81, 146, 59, 206, 124, 81, 189, 231, 109, 147, 189, 196, 34, 136, 189, 2, 17, 49, 61, 103, 78, 57, 189, 183, 124, 226, 188, 176, 41, 252, 188, 23, 221, 194, 188, 210, 19, 61, 189, 226, 250, 173, 188, 90, 128, 84, 188, 29, 74, 16, 61, 34, 224, 19, 189, 12, 177, 87, 189, 117, 254, 233, 60, 207, 248, 15, 60, 146, 113, 123, 189, 41, 196, 81, 61, 100, 145, 165, 60, 81, 60, 38, 188, 113, 203, 212, 188, 41, 143, 2, 188, 98, 74, 247, 60, 44, 105, 91, 189, 113, 88, 92, 61, 34, 219, 200, 59, 204, 157, 92, 188, 235, 184, 59, 61, 232, 100, 64, 188, 53, 37, 121, 189, 227, 114, 60, 61, 100, 39, 30, 61, 244, 168, 41, 61, 78, 163, 214, 59, 231, 94, 135, 60, 220, 168, 102, 61, 149, 60, 129, 61, 20, 26, 83, 189, 55, 166, 131, 61, 13, 33, 255, 188, 44, 119, 186, 60, 212, 83, 91, 189, 22, 69, 199, 188, 21, 74, 216, 188, 133, 217, 36, 189, 177, 206, 47, 61, 56, 152, 109, 189, 224, 218, 245, 60, 71, 32, 216, 186, 230, 103, 58, 189, 120, 34, 87, 189, 21, 1, 66, 189, 4, 0, 178, 188, 66, 79, 50, 189, 4, 181, 91, 61, 159, 144, 216, 60, 119, 22, 242, 188, 192, 79, 233, 60, 182, 159, 174, 60, 101, 144, 42, 60, 153, 57, 56, 61, 127, 2, 252, 188, 239, 96, 250, 188, 36, 25, 212, 60, 255, 27, 111, 61, 246, 107, 21, 189, 246, 87, 44, 188, 186, 8, 207, 60, 55, 215, 21, 61, 182, 83, 115, 189, 183, 4, 129, 189, 16, 95, 248, 59, 103, 46, 72, 189, 194, 200, 207, 60, 0, 195, 90, 61, 162, 157, 70, 188, 1, 28, 68, 60, 152, 125, 7, 189, 175, 182, 30, 186, 204, 22, 204, 60, 4, 1, 107, 61, 128, 53, 135, 58, 138, 73, 169, 188, 85, 223, 233, 60, 199, 191, 149, 188, 162, 130, 63, 189, 74, 52, 32, 189, 39, 92, 23, 61, 25, 240, 4, 61, 106, 50, 222, 60, 3, 152, 202, 188, 14, 148, 191, 60, 161, 111, 134, 189, 253, 159, 48, 61, 35, 248, 236, 188, 231, 37, 45, 61, 171, 100, 62, 187, 244, 132, 44, 60, 20, 53, 161, 188, 110, 29, 73, 61, 76, 101, 15, 61, 98, 131, 166, 187, 216, 150, 106, 189, 73, 36, 14, 189, 43, 121, 0, 188, 139, 81, 110, 189, 191, 195, 63, 189, 129, 192, 215, 188, 168, 209, 47, 189, 16, 89, 251, 188, 209, 149, 130, 188, 220, 108, 138, 189, 159, 221, 21, 189, 21, 50, 160, 59, 116, 134, 50, 60, 116, 220, 150, 187, 0, 158, 109, 61, 215, 182, 130, 61, 114, 144, 92, 188, 246, 131, 102, 61, 10, 31, 138, 189, 218, 89, 238, 188, 0, 175, 47, 61, 97, 14, 119, 61, 143, 240, 72, 61, 0, 209, 157, 60, 187, 215, 50, 61, 78, 214, 91, 61, 32, 75, 124, 61, 81, 207, 183, 186, 8, 147, 235, 60, 93, 117, 109, 61, 241, 174, 48, 60, 240, 255, 239, 187, 26, 51, 31, 189, 79, 142, 176, 188, 173, 206, 49, 60, 110, 213, 252, 188, 82, 175, 113, 189, 76, 199, 55, 61, 151, 119, 27, 187, 18, 194, 135, 189, 101, 172, 113, 61, 45, 83, 84, 61, 7, 87, 16, 61, 71, 80, 177, 59, 210, 120, 158, 188, 53, 227, 55, 186, 54, 26, 51, 60, 232, 218, 36, 187, 54, 80, 143, 189, 107, 17, 107, 61, 87, 48, 177, 60, 77, 167, 64, 189, 222, 30, 15, 188, 84, 182, 132, 61, 48, 245, 25, 187, 82, 222, 99, 61, 186, 143, 90, 189, 148, 94, 129, 60, 169, 194, 118, 189, 212, 26, 9, 189, 194, 17, 129, 61, 195, 200, 131, 188, 193, 87, 71, 189, 113, 215, 55, 189, 118, 163, 132, 60, 192, 201, 165, 188, 178, 183, 13, 189, 218, 72, 47, 61, 236, 35, 84, 189, 24, 121, 30, 61, 243, 195, 10, 61, 103, 74, 137, 60, 44, 209, 183, 60, 31, 226, 202, 186, 14, 254, 234, 60, 158, 118, 199, 60, 39, 35, 127, 189, 112, 140, 199, 187, 201, 175, 97, 189, 46, 202, 129, 189, 253, 196, 29, 187, 160, 164, 201, 187, 158, 242, 156, 60, 242, 215, 234, 60, 116, 137, 130, 189, 93, 205, 210, 59, 8, 34, 53, 61, 183, 210, 5, 61, 227, 107, 178, 60, 89, 61, 180, 188, 210, 199, 24, 60, 119, 94, 46, 60, 223, 195, 192, 59, 43, 225, 73, 60, 170, 46, 104, 189, 126, 182, 215, 60, 245, 238, 130, 189, 129, 60, 11, 61, 164, 238, 42, 189, 64, 133, 65, 60, 68, 253, 222, 60, 17, 24, 176, 60, 183, 202, 85, 189, 231, 97, 151, 188, 12, 33, 42, 60, 35, 73, 233, 60, 197, 24, 130, 189, 236, 242, 183, 188, 167, 155, 100, 59, 72, 138, 26, 61, 252, 78, 161, 60, 120, 182, 168, 188, 63, 5, 197, 60, 31, 246, 235, 187, 240, 215, 83, 187, 48, 206, 130, 189, 21, 88, 117, 189, 171, 216, 29, 189, 56, 195, 75, 61, 148, 247, 222, 188, 65, 68, 78, 189, 80, 168, 79, 61, 179, 46, 171, 187, 184, 184, 1, 60, 76, 207, 87, 61, 101, 158, 71, 61, 116, 21, 28, 61, 179, 42, 137, 61, 206, 116, 219, 59, 66, 222, 129, 59, 252, 178, 129, 188, 168, 77, 108, 189, 247, 106, 110, 188, 108, 139, 136, 60, 114, 20, 45, 189, 110, 69, 139, 189, 152, 45, 241, 60, 176, 38, 60, 60, 210, 106, 134, 188, 137, 109, 55, 189, 156, 120, 13, 188, 250, 190, 23, 188, 247, 177, 63, 189, 59, 47, 53, 61, 141, 219, 139, 60, 242, 140, 64, 189, 70, 118, 59, 189, 216, 238, 216, 60, 85, 137, 55, 61, 0, 109, 246, 60, 134, 227, 94, 61, 76, 191, 3, 61, 48, 94, 82, 189, 102, 200, 15, 189, 17, 8, 7, 187, 136, 96, 131, 61, 10, 74, 81, 189, 81, 244, 186, 60, 46, 172, 33, 59, 110, 54, 75, 189, 235, 18, 147, 189, 124, 89, 255, 59, 70, 75, 148, 188, 144, 191, 195, 187, 117, 221, 75, 61, 67, 145, 72, 189, 234, 9, 55, 188, 148, 159, 133, 189, 19, 40, 134, 189, 234, 127, 129, 189, 186, 232, 21, 189, 108, 172, 13, 61, 161, 126, 22, 59, 218, 122, 234, 188, 50, 49, 249, 60, 38, 6, 161, 187, 198, 134, 28, 60, 76, 36, 155, 59, 201, 215, 7, 58, 214, 211, 17, 61, 183, 73, 88, 189, 138, 65, 178, 60, 181, 117, 176, 188, 180, 213, 98, 61, 49, 165, 214, 60, 240, 173, 67, 189, 20, 23, 205, 186, 40, 108, 34, 189, 13, 136, 138, 61, 127, 105, 114, 61, 18, 59, 14, 185, 19, 145, 130, 60, 151, 12, 80, 189, 60, 170, 69, 61, 80, 249, 200, 60, 132, 89, 121, 188, 91, 177, 164, 60, 52, 118, 120, 59, 1, 194, 203, 60, 222, 18, 137, 189, 130, 117, 241, 60, 180, 127, 139, 189, 226, 36, 128, 61, 217, 77, 25, 189, 84, 209, 194, 188, 162, 81, 21, 61, 241, 244, 54, 189, 56, 102, 58, 189, 191, 77, 91, 188, 197, 115, 157, 60, 146, 159, 17, 189, 98, 116, 45, 61, 99, 17, 248, 187, 67, 58, 168, 60, 98, 122, 126, 61, 34, 10, 107, 188, 230, 105, 208, 60, 59, 249, 156, 60, 45, 40, 24, 61, 234, 245, 135, 189, 97, 84, 6, 61, 61, 209, 173, 60, 22, 157, 204, 59, 68, 128, 175, 187, 47, 15, 167, 188, 135, 209, 56, 187, 240, 66, 56, 189, 87, 219, 43, 61, 231, 157, 136, 60, 78, 214, 53, 60, 50, 67, 152, 60, 138, 204, 72, 60, 10, 165, 47, 189, 190, 152, 31, 61, 128, 212, 123, 188, 64, 52, 71, 188, 254, 41, 189, 188, 16, 229, 129, 186, 233, 81, 2, 189, 241, 123, 119, 61, 192, 83, 91, 61, 50, 213, 185, 60, 193, 13, 14, 189, 96, 93, 209, 186, 223, 200, 27, 61, 55, 25, 115, 61, 108, 24, 68, 60, 74, 42, 97, 61, 175, 166, 247, 188, 231, 161, 78, 61, 116, 60, 128, 188, 134, 192, 94, 61, 177, 253, 179, 60, 151, 65, 133, 188, 50, 120, 132, 189, 3, 30, 11, 61, 11, 152, 105, 61, 125, 23, 121, 61, 169, 69, 58, 61, 102, 244, 63, 189, 182, 65, 95, 61, 147, 118, 227, 188, 18, 122, 161, 59, 36, 181, 111, 186, 141, 158, 40, 61, 189, 153, 99, 61, 138, 144, 35, 186, 69, 163, 35, 189, 20, 91, 111, 189, 95, 109, 51, 189, 18, 208, 100, 189, 96, 191, 0, 61, 149, 20, 184, 60, 90, 78, 2, 189, 48, 133, 9, 60, 191, 226, 57, 189, 8, 180, 71, 61, 199, 39, 109, 60, 209, 242, 23, 61, 90, 178, 94, 61, 33, 241, 103, 61, 107, 180, 115, 61, 240, 163, 58, 189, 110, 136, 92, 189, 226, 60, 87, 189, 137, 166, 137, 60, 86, 240, 68, 189, 251, 57, 11, 189, 225, 157, 46, 189, 240, 217, 154, 60, 127, 157, 175, 60, 137, 97, 91, 61, 190, 233, 86, 61, 87, 113, 241, 60, 226, 156, 57, 189, 176, 228, 191, 188, 101, 98, 66, 189, 128, 48, 236, 187, 255, 60, 226, 188, 241, 146, 174, 60, 86, 99, 182, 60, 64, 130, 83, 61, 82, 31, 23, 189, 241, 42, 168, 188, 2, 8, 6, 188, 26, 121, 8, 188, 124, 112, 149, 187, 5, 24, 77, 189, 31, 251, 138, 61, 205, 121, 153, 60, 70, 190, 247, 187, 73, 47, 104, 189, 28, 48, 111, 189, 74, 36, 35, 60, 136, 114, 203, 60, 101, 73, 79, 189, 174, 150, 49, 60, 245, 67, 188, 188, 133, 40, 16, 189, 114, 153, 94, 189, 73, 158, 72, 189, 182, 75, 135, 60, 72, 39, 81, 187, 53, 230, 124, 189, 79, 207, 170, 188, 16, 151, 5, 188, 129, 243, 108, 189, 157, 64, 199, 60, 134, 55, 175, 188, 60, 13, 144, 60, 231, 156, 204, 188, 228, 90, 111, 189, 11, 69, 112, 189, 132, 142, 184, 60, 110, 8, 127, 61, 135, 220, 165, 184, 21, 41, 149, 189, 115, 123, 253, 60, 67, 80, 205, 59, 111, 233, 35, 188, 51, 143, 113, 189, 243, 28, 136, 189, 133, 198, 176, 187, 222, 130, 252, 59, 146, 91, 17, 60, 5, 98, 103, 61, 61, 66, 129, 189, 106, 151, 45, 187, 15, 29, 80, 61, 216, 18, 250, 60, 79, 57, 54, 189, 246, 66, 124, 188, 209, 40, 11, 189, 144, 100, 155, 188, 144, 151, 17, 61, 217, 29, 210, 60, 61, 103, 8, 189, 173, 189, 133, 189, 73, 127, 79, 61, 130, 242, 69, 60, 70, 239, 189, 188, 118, 31, 156, 186, 244, 253, 188, 60, 206, 174, 151, 189, 201, 44, 127, 188, 42, 54, 21, 61, 233, 63, 246, 60, 180, 86, 25, 59, 97, 137, 68, 188, 59, 162, 221, 58, 43, 99, 53, 189, 59, 47, 233, 59, 255, 145, 131, 188, 77, 154, 170, 188, 216, 6, 62, 188, 43, 246, 218, 60, 157, 227, 7, 61, 160, 148, 95, 61, 251, 225, 71, 189, 72, 5, 30, 61, 250, 230, 131, 60, 227, 79, 146, 189, 217, 229, 48, 188, 79, 81, 9, 187, 6, 23, 109, 189, 236, 197, 176, 60, 15, 141, 225, 59, 8, 240, 149, 189, 247, 180, 175, 188, 225, 14, 192, 188, 244, 102, 156, 60, 192, 36, 225, 58, 253, 194, 169, 188, 239, 53, 5, 189, 69, 108, 136, 61, 56, 143, 73, 61, 185, 133, 70, 189, 241, 207, 192, 188, 204, 52, 3, 189, 95, 121, 235, 60, 203, 11, 128, 189, 142, 62, 236, 186, 66, 172, 207, 188, 126, 203, 119, 189, 249, 49, 220, 187, 35, 251, 4, 189, 11, 239, 202, 188, 78, 184, 112, 61, 0, 20, 23, 61, 228, 69, 156, 59, 250, 2, 133, 189, 131, 216, 13, 189, 81, 167, 95, 189, 84, 164, 237, 188, 20, 221, 244, 60, 169, 198, 175, 59, 4, 162, 192, 186, 55, 130, 24, 59, 159, 182, 38, 189, 163, 117, 234, 187, 53, 186, 197, 60, 194, 83, 101, 61, 93, 255, 147, 189, 114, 85, 7, 61, 61, 23, 149, 188, 178, 172, 70, 189, 236, 191, 9, 189, 105, 72, 40, 61, 199, 124, 3, 61, 18, 132, 146, 188, 55, 192, 82, 60, 227, 58, 6, 61, 222, 78, 137, 188, 52, 197, 139, 189, 50, 91, 135, 189, 31, 195, 36, 189, 193, 135, 97, 61, 239, 109, 26, 59, 34, 81, 185, 188, 128, 209, 7, 188, 51, 241, 114, 189, 116, 174, 31, 61, 150, 251, 84, 61, 247, 217, 174, 60, 229, 44, 170, 60, 96, 18, 128, 61, 105, 34, 110, 61, 204, 53, 15, 189, 129, 16, 99, 61, 247, 141, 18, 61, 192, 209, 50, 60, 252, 135, 34, 60, 177, 247, 164, 188, 145, 6, 35, 61, 165, 109, 112, 188, 79, 161, 104, 189, 75, 206, 112, 188, 0, 201, 115, 189, 246, 135, 57, 61, 190, 148, 89, 189, 246, 175, 162, 188, 150, 152, 119, 61, 31, 193, 106, 189, 245, 124, 28, 189, 109, 185, 129, 60, 129, 80, 77, 61, 36, 247, 132, 59, 114, 51, 103, 59, 190, 159, 41, 189, 68, 65, 121, 189, 72, 129, 66, 60, 83, 47, 150, 189, 233, 231, 66, 61, 173, 62, 172, 59, 78, 46, 83, 61, 238, 112, 86, 61, 97, 129, 94, 189, 23, 82, 65, 189, 252, 198, 130, 60, 144, 0, 33, 61, 213, 178, 81, 61, 94, 188, 150, 189, 124, 178, 50, 61, 14, 98, 137, 189, 106, 209, 146, 189, 177, 53, 1, 188, 228, 0, 148, 189, 32, 127, 84, 189, 145, 108, 39, 189, 240, 8, 32, 188, 128, 213, 36, 189, 126, 131, 42, 60, 241, 17, 116, 189, 242, 14, 61, 61, 114, 129, 72, 61, 161, 153, 56, 189, 175, 0, 65, 61, 185, 236, 82, 189, 73, 211, 120, 189, 86, 143, 56, 61, 182, 73, 62, 60, 184, 207, 252, 188, 194, 66, 187, 188, 76, 72, 241, 60, 132, 68, 187, 60, 172, 240, 136, 189, 201, 52, 244, 188, 220, 59, 130, 58, 150, 22, 33, 61, 0, 91, 213, 58, 95, 187, 98, 189, 18, 9, 72, 189, 102, 44, 172, 188, 156, 109, 1, 189, 162, 180, 20, 61, 39, 114, 231, 188, 11, 206, 160, 188, 128, 176, 76, 189, 131, 136, 18, 189, 133, 55, 115, 61, 110, 25, 202, 188, 220, 10, 108, 61, 118, 120, 74, 61, 131, 243, 117, 188, 133, 191, 131, 189, 111, 138, 129, 189, 76, 215, 27, 61, 102, 121, 8, 189, 181, 255, 139, 187, 202, 6, 194, 60, 69, 65, 239, 60, 58, 218, 243, 188, 238, 103, 194, 60, 220, 106, 107, 187, 7, 175, 42, 61, 187, 171, 157, 188, 87, 196, 32, 61, 248, 106, 33, 189, 242, 235, 2, 189, 110, 128, 152, 60, 58, 224, 13, 189, 232, 122, 103, 188, 107, 46, 197, 59, 191, 242, 21, 61, 79, 68, 134, 189, 138, 152, 99, 60, 3, 180, 252, 60, 78, 158, 34, 188, 80, 148, 201, 60, 69, 55, 36, 189, 40, 40, 133, 60, 14, 116, 33, 189, 93, 206, 131, 60, 163, 96, 127, 189, 117, 124, 44, 189, 200, 89, 226, 188, 188, 116, 175, 188, 123, 84, 101, 61, 127, 40, 187, 188, 56, 206, 64, 61, 32, 103, 73, 189, 191, 253, 32, 189, 248, 56, 104, 189, 144, 20, 132, 187, 100, 59, 154, 187, 186, 247, 22, 60, 150, 99, 174, 60, 106, 121, 197, 60, 47, 68, 98, 61, 78, 72, 134, 189, 9, 113, 119, 189, 175, 197, 134, 61, 235, 199, 196, 60, 217, 228, 117, 189, 202, 56, 0, 60, 172, 63, 98, 59, 61, 168, 231, 188, 16, 64, 125, 60, 134, 195, 121, 61, 200, 131, 200, 60, 144, 121, 104, 61, 113, 206, 54, 188, 24, 202, 38, 189, 183, 54, 146, 187, 98, 136, 204, 187, 192, 71, 177, 60, 159, 147, 93, 189, 128, 154, 151, 59, 4, 13, 65, 61, 203, 181, 130, 61, 90, 54, 89, 189, 97, 151, 36, 61, 213, 124, 67, 189, 113, 125, 238, 60, 37, 197, 74, 189, 64, 35, 181, 60, 243, 20, 53, 60, 253, 21, 173, 188, 168, 2, 130, 189, 111, 235, 61, 188, 44, 217, 143, 60, 2, 145, 38, 61, 125, 245, 35, 189, 27, 72, 109, 60, 100, 230, 107, 189, 216, 160, 147, 188, 249, 125, 134, 189, 211, 181, 87, 189, 120, 98, 232, 188, 29, 121, 219, 188, 61, 56, 190, 188, 82, 81, 114, 61, 67, 238, 74, 61, 247, 20, 132, 189, 40, 231, 15, 61, 224, 44, 83, 61, 118, 228, 147, 189, 183, 150, 13, 189, 91, 247, 171, 188, 17, 230, 18, 189, 211, 39, 73, 61, 62, 230, 90, 189, 13, 59, 20, 189, 147, 174, 160, 188, 9, 23, 168, 188, 99, 201, 48, 61, 128, 171, 215, 59, 222, 209, 110, 189, 236, 196, 127, 61, 150, 27, 53, 60, 175, 174, 114, 61, 159, 129, 130, 189, 130, 43, 126, 61, 248, 64, 39, 60, 204, 221, 144, 189, 232, 147, 14, 61, 61, 88, 243, 188, 0, 6, 23, 60, 14, 128, 133, 187, 148, 251, 16, 61, 10, 231, 14, 189, 162, 229, 90, 189, 27, 25, 134, 61, 200, 171, 66, 189, 121, 60, 79, 61, 136, 222, 91, 189, 94, 2, 185, 188, 181, 251, 33, 61, 102, 133, 165, 60, 71, 182, 111, 189, 167, 133, 108, 60, 106, 237, 47, 61, 141, 223, 59, 188, 147, 199, 78, 189, 39, 151, 1, 61, 214, 200, 89, 189, 100, 22, 113, 189, 209, 150, 125, 188, 234, 89, 5, 61, 38, 182, 32, 61, 178, 108, 102, 61, 15, 203, 0, 61, 139, 253, 138, 189, 79, 142, 39, 61, 131, 212, 178, 188, 228, 160, 126, 189, 229, 147, 205, 59, 46, 3, 115, 189, 254, 77, 253, 60, 184, 57, 23, 60, 251, 189, 220, 188, 51, 146, 22, 189, 135, 142, 203, 188, 246, 242, 20, 188, 220, 223, 91, 61, 84, 18, 235, 60, 223, 129, 215, 188, 217, 250, 163, 187, 191, 91, 37, 189, 157, 173, 146, 189, 59, 186, 148, 188, 219, 107, 44, 189, 150, 206, 245, 188, 144, 36, 47, 60, 253, 107, 203, 60, 42, 27, 69, 189, 50, 37, 140, 189, 245, 56, 130, 59, 210, 73, 70, 188, 183, 164, 150, 189, 44, 166, 245, 60, 180, 62, 36, 61, 214, 7, 41, 60, 0, 253, 107, 60, 212, 3, 240, 60, 156, 119, 217, 60, 95, 77, 125, 61, 158, 254, 63, 61, 146, 30, 37, 188, 124, 141, 50, 188, 227, 142, 116, 60, 140, 155, 106, 188, 14, 207, 71, 61, 241, 66, 200, 59, 56, 108, 16, 189, 238, 108, 188, 60, 176, 242, 138, 189, 10, 126, 54, 61, 209, 152, 52, 61, 133, 51, 1, 189, 18, 108, 139, 189, 20, 25, 108, 61, 93, 208, 56, 61, 48, 209, 223, 187, 174, 65, 132, 60, 120, 104, 89, 189, 235, 231, 84, 61, 212, 95, 16, 189, 74, 168, 150, 188, 88, 194, 9, 60, 165, 255, 191, 58, 227, 133, 25, 59, 62, 23, 144, 189, 152, 76, 4, 61, 52, 162, 4, 188, 100, 213, 104, 189, 183, 188, 68, 189, 229, 197, 93, 61, 103, 155, 198, 188, 230, 172, 52, 61, 137, 52, 21, 61, 153, 46, 100, 189, 18, 142, 128, 189, 88, 132, 185, 60, 225, 188, 127, 189, 160, 151, 143, 189, 87, 200, 143, 59, 204, 166, 120, 189, 212, 122, 106, 61, 113, 99, 9, 188, 220, 7, 45, 60, 91, 222, 158, 188, 103, 237, 53, 61, 93, 92, 249, 188, 100, 123, 113, 189, 240, 27, 77, 60, 207, 132, 232, 60, 35, 121, 136, 60, 141, 59, 35, 61, 110, 105, 162, 186, 37, 198, 35, 189, 237, 163, 23, 61, 247, 226, 64, 61, 218, 153, 202, 187, 150, 90, 75, 189, 210, 106, 180, 186, 68, 135, 8, 61, 192, 246, 253, 188, 14, 144, 123, 189, 93, 224, 151, 59, 40, 1, 28, 60, 92, 72, 92, 60, 172, 204, 207, 60, 217, 188, 111, 189, 163, 203, 128, 61, 50, 82, 139, 189, 23, 44, 90, 189, 191, 157, 135, 188, 96, 254, 96, 61, 34, 225, 192, 188, 66, 90, 235, 59, 72, 167, 184, 60, 74, 65, 158, 188, 205, 0, 84, 60, 226, 28, 182, 187, 108, 176, 30, 61, 178, 88, 44, 60, 123, 170, 56, 189, 227, 106, 20, 189, 140, 227, 135, 188, 215, 166, 128, 189, 206, 219, 188, 188, 172, 5, 128, 189, 140, 10, 92, 188, 51, 5, 149, 189, 158, 34, 31, 189, 23, 134, 194, 60, 132, 151, 66, 189, 156, 79, 40, 61, 227, 121, 102, 188, 108, 67, 40, 61, 133, 205, 166, 188, 253, 145, 113, 61, 28, 201, 109, 189, 165, 251, 147, 189, 70, 65, 18, 189, 119, 110, 8, 189, 147, 127, 232, 60, 218, 101, 77, 189, 250, 114, 91, 61, 207, 222, 104, 189, 74, 199, 88, 189, 50, 78, 145, 189, 141, 186, 16, 60, 43, 130, 82, 59, 20, 164, 137, 189, 88, 255, 135, 60, 25, 76, 98, 189, 35, 214, 232, 188, 255, 132, 128, 189, 138, 160, 152, 189, 41, 65, 64, 188, 67, 145, 155, 60, 193, 3, 128, 189, 234, 38, 127, 189, 0, 224, 197, 60, 136, 60, 243, 60, 59, 146, 239, 188, 196, 137, 69, 60, 119, 52, 63, 189, 218, 213, 122, 189, 80, 129, 133, 59, 119, 132, 78, 188, 6, 144, 16, 189, 28, 58, 59, 61, 148, 158, 137, 189, 32, 122, 55, 189, 251, 254, 3, 189, 134, 4, 137, 189, 108, 237, 70, 188, 232, 43, 223, 60, 129, 165, 54, 189, 18, 104, 107, 61, 105, 94, 74, 189, 123, 15, 12, 60, 213, 91, 7, 189, 49, 5, 15, 61, 38, 103, 121, 61, 150, 131, 128, 188, 241, 239, 74, 61, 160, 165, 48, 61, 233, 201, 112, 61, 7, 144, 246, 187, 200, 114, 216, 60, 88, 213, 249, 60, 101, 19, 63, 60, 96, 115, 6, 187, 132, 135, 254, 188, 184, 239, 213, 60, 47, 137, 131, 189, 93, 86, 187, 188, 217, 80, 194, 187, 6, 188, 166, 60, 0, 74, 16, 185, 140, 90, 129, 189, 173, 154, 101, 61, 1, 163, 156, 58, 115, 15, 16, 61, 7, 244, 59, 189, 50, 186, 18, 61, 136, 216, 66, 189, 190, 181, 140, 189, 100, 1, 47, 189, 180, 11, 92, 189, 72, 45, 75, 59, 34, 177, 53, 61, 129, 86, 210, 59, 15, 185, 66, 60, 251, 35, 141, 189, 91, 219, 16, 189, 38, 141, 146, 189, 8, 190, 3, 61, 41, 83, 217, 188, 251, 181, 66, 189, 177, 132, 67, 61, 125, 10, 29, 189, 70, 101, 18, 61, 17, 212, 93, 61, 142, 36, 96, 189, 206, 23, 129, 189, 227, 89, 80, 189, 157, 62, 23, 61, 217, 206, 116, 189, 204, 130, 37, 61, 169, 199, 74, 189, 127, 160, 33, 189, 206, 184, 208, 60, 131, 209, 82, 189, 44, 174, 52, 60, 38, 194, 3, 61, 6, 181, 181, 188, 56, 119, 174, 188, 135, 70, 3, 61, 160, 45, 102, 189, 53, 189, 41, 189, 25, 7, 237, 59, 121, 3, 95, 59, 144, 83, 222, 188, 40, 71, 74, 189, 144, 244, 37, 61, 17, 87, 229, 60, 220, 167, 85, 188, 247, 39, 6, 189, 63, 22, 3, 61, 190, 132, 72, 61, 78, 23, 129, 188, 112, 27, 92, 61, 180, 226, 102, 189, 178, 26, 81, 189, 230, 55, 16, 61, 193, 206, 136, 61, 48, 222, 132, 59, 196, 205, 39, 61, 15, 249, 89, 188, 30, 33, 39, 61, 173, 210, 131, 188, 212, 249, 55, 188, 112, 142, 173, 188, 58, 171, 101, 61, 222, 199, 125, 61, 116, 163, 233, 60, 220, 148, 178, 60, 125, 63, 99, 189, 44, 145, 128, 189, 212, 78, 67, 61, 152, 63, 34, 61, 96, 55, 135, 188, 243, 135, 134, 189, 185, 126, 67, 61, 249, 20, 204, 188, 28, 70, 6, 60, 0, 148, 43, 187, 51, 218, 19, 187, 172, 76, 140, 188, 31, 168, 206, 188, 11, 94, 132, 60, 140, 31, 136, 188, 132, 228, 183, 188, 74, 14, 149, 189, 75, 254, 208, 60, 240, 116, 89, 61, 241, 210, 50, 61, 77, 201, 11, 189, 79, 13, 58, 61, 136, 151, 150, 189, 241, 235, 9, 189, 73, 148, 16, 61, 84, 167, 150, 60, 240, 148, 44, 189, 172, 254, 211, 60, 137, 217, 86, 189, 211, 195, 42, 60, 145, 61, 142, 60, 190, 241, 146, 188, 152, 156, 118, 188, 65, 127, 137, 189, 179, 216, 127, 61, 254, 254, 15, 189, 213, 131, 36, 60, 204, 126, 25, 61, 254, 206, 95, 188, 56, 157, 136, 188, 55, 19, 85, 189, 187, 34, 46, 189, 105, 59, 163, 188, 238, 4, 148, 189, 139, 224, 100, 189, 239, 99, 9, 61, 209, 157, 44, 60, 98, 233, 154, 188, 59, 239, 213, 188, 233, 36, 133, 60, 201, 208, 38, 189, 159, 24, 140, 61, 192, 243, 6, 61, 173, 32, 230, 188, 226, 236, 235, 60, 139, 172, 45, 61, 137, 236, 146, 189, 154, 59, 130, 189, 26, 104, 233, 60, 246, 70, 54, 189, 23, 18, 14, 188, 199, 0, 77, 189, 74, 105, 193, 188, 70, 187, 74, 189, 214, 167, 183, 60, 56, 66, 232, 188, 243, 173, 216, 188, 4, 58, 61, 189, 83, 229, 141, 188, 240, 118, 117, 189, 36, 19, 115, 61, 127, 33, 251, 188, 146, 142, 126, 189, 101, 233, 99, 60, 50, 199, 204, 60, 0, 150, 106, 58, 111, 45, 59, 61, 121, 218, 95, 61, 17, 48, 189, 60, 28, 92, 139, 188, 93, 182, 109, 61, 254, 140, 61, 188, 59, 2, 163, 186, 11, 174, 69, 189, 206, 82, 104, 61, 162, 159, 24, 61, 176, 200, 206, 59, 160, 141, 104, 61, 248, 213, 38, 189, 62, 35, 217, 188, 127, 199, 105, 61, 26, 212, 69, 61, 23, 198, 81, 61, 208, 7, 165, 188, 252, 3, 44, 61, 30, 108, 43, 61, 107, 224, 40, 60, 17, 159, 159, 188, 230, 74, 196, 188, 198, 45, 136, 189, 8, 160, 4, 188, 106, 145, 69, 61, 96, 53, 2, 59, 121, 116, 29, 61, 170, 63, 68, 189, 139, 38, 36, 61, 22, 173, 102, 189, 129, 192, 151, 189, 98, 93, 160, 186, 8, 197, 113, 189, 29, 159, 93, 189, 9, 30, 25, 189, 105, 71, 113, 61, 83, 235, 217, 60, 9, 193, 117, 61, 36, 184, 43, 189, 202, 240, 22, 61, 247, 82, 233, 60, 177, 223, 50, 189, 90, 0, 45, 61, 38, 10, 149, 189, 75, 180, 106, 61, 223, 47, 41, 189, 45, 145, 253, 58, 45, 211, 95, 188, 237, 211, 159, 188, 123, 238, 91, 61, 122, 115, 98, 60, 116, 23, 66, 60, 86, 24, 123, 189, 18, 148, 84, 189, 192, 97, 33, 188, 151, 52, 145, 60, 54, 184, 240, 59, 161, 77, 154, 60, 2, 204, 129, 189, 253, 88, 139, 189, 36, 14, 193, 187, 85, 217, 130, 61, 88, 248, 250, 60, 186, 228, 142, 188, 224, 247, 64, 187, 242, 120, 27, 189, 64, 84, 160, 186, 183, 105, 167, 59, 28, 36, 70, 61, 225, 151, 96, 187, 143, 20, 128, 59, 14, 79, 64, 61, 63, 33, 128, 61, 176, 165, 100, 61, 12, 224, 60, 61, 192, 2, 131, 189, 205, 129, 203, 60, 140, 247, 48, 188, 251, 158, 167, 188, 78, 253, 109, 189, 37, 99, 45, 189, 26, 161, 89, 189, 151, 111, 208, 60, 79, 92, 82, 61, 103, 239, 46, 61, 58, 80, 62, 61, 48, 142, 139, 188, 121, 91, 14, 61, 208, 124, 170, 188, 35, 197, 7, 61, 25, 76, 245, 60, 76, 183, 13, 188, 188, 78, 138, 189, 116, 49, 28, 189, 17, 30, 190, 188, 141, 69, 11, 61, 128, 73, 125, 186, 202, 45, 15, 61, 209, 195, 106, 61, 48, 146, 184, 188, 248, 170, 85, 189, 66, 249, 88, 189, 104, 9, 248, 60, 24, 150, 169, 188, 148, 74, 60, 61, 159, 241, 127, 61, 188, 112, 34, 61, 238, 143, 239, 60, 26, 151, 201, 187, 244, 235, 11, 188, 65, 131, 184, 60, 58, 117, 61, 189, 218, 0, 237, 188, 64, 90, 13, 59, 196, 20, 119, 188, 127, 188, 159, 188, 29, 213, 54, 61, 228, 217, 86, 189, 92, 178, 41, 60, 240, 183, 67, 61, 233, 17, 121, 61, 8, 116, 96, 189, 163, 58, 146, 60, 18, 210, 115, 189, 151, 181, 71, 61, 189, 19, 12, 61, 168, 44, 223, 60, 232, 237, 150, 189, 133, 69, 211, 188, 26, 196, 1, 189, 108, 26, 212, 188, 21, 223, 119, 189, 190, 85, 130, 189, 58, 85, 99, 189, 70, 77, 255, 188, 48, 183, 75, 189, 3, 243, 51, 61, 82, 32, 115, 189, 158, 115, 63, 61, 239, 161, 235, 187, 68, 76, 85, 61, 6, 26, 53, 61, 108, 118, 70, 189, 250, 26, 36, 60, 111, 233, 175, 187, 220, 233, 93, 189, 26, 236, 224, 59, 175, 127, 75, 189, 59, 47, 36, 189, 84, 239, 50, 188, 238, 223, 20, 189, 152, 145, 128, 59, 5, 168, 130, 189, 117, 198, 51, 60, 161, 180, 234, 60, 78, 13, 117, 189, 127, 3, 141, 61, 217, 21, 18, 188, 188, 235, 8, 189, 0, 94, 132, 60, 61, 143, 218, 188, 56, 113, 117, 60, 98, 57, 254, 58, 36, 245, 46, 189, 66, 138, 45, 189, 129, 43, 34, 189, 192, 242, 53, 59, 199, 84, 100, 61, 190, 48, 222, 188, 143, 232, 89, 188, 214, 194, 147, 189, 39, 11, 128, 61, 33, 250, 154, 59, 188, 195, 57, 61, 150, 1, 118, 189, 134, 228, 39, 188, 143, 143, 57, 189, 72, 116, 38, 61, 132, 168, 99, 61, 112, 112, 138, 189, 110, 193, 135, 60, 186, 140, 16, 61, 83, 25, 134, 61, 161, 201, 228, 60, 100, 127, 63, 60, 230, 162, 23, 189, 134, 5, 69, 61, 33, 146, 125, 61, 222, 165, 169, 188, 199, 60, 32, 61, 230, 210, 150, 189, 216, 39, 48, 189, 74, 199, 55, 61, 70, 228, 55, 61, 120, 26, 250, 60, 228, 165, 125, 189, 91, 178, 93, 61, 151, 46, 227, 188, 156, 240, 140, 59, 20, 29, 123, 61, 160, 237, 165, 187, 232, 207, 73, 189, 254, 188, 88, 60, 74, 23, 18, 61, 204, 190, 83, 60, 198, 134, 131, 189, 118, 210, 198, 187, 63, 155, 202, 187, 219, 133, 138, 189, 50, 188, 53, 60, 37, 120, 122, 61, 59, 131, 24, 189, 78, 217, 221, 60, 208, 115, 78, 189, 145, 152, 53, 61, 2, 150, 159, 187, 14, 84, 136, 189, 113, 159, 1, 189, 67, 7, 90, 189, 50, 142, 176, 60, 201, 176, 63, 61, 158, 209, 76, 189, 185, 50, 61, 189, 132, 241, 133, 189, 0, 40, 111, 61, 196, 245, 228, 187, 210, 88, 115, 189, 4, 124, 95, 61, 224, 32, 163, 60, 146, 118, 114, 61, 79, 246, 189, 60, 201, 184, 64, 61, 87, 107, 65, 189, 230, 226, 123, 189, 16, 79, 23, 189, 4, 47, 93, 189, 137, 39, 73, 61, 20, 97, 71, 189, 112, 135, 6, 189, 10, 38, 77, 60, 248, 157, 197, 188, 96, 93, 10, 188, 150, 19, 86, 189, 132, 196, 40, 188, 214, 8, 44, 61, 192, 252, 173, 58, 89, 195, 67, 61, 92, 127, 35, 58, 39, 155, 47, 189, 189, 109, 200, 60, 129, 102, 189, 187, 202, 204, 119, 189, 181, 49, 180, 60, 111, 39, 183, 60, 59, 66, 189, 59, 12, 140, 26, 189, 62, 40, 110, 61, 56, 182, 103, 60, 227, 125, 101, 189, 128, 43, 131, 188, 30, 220, 81, 60, 166, 87, 144, 188, 138, 216, 80, 60, 81, 11, 27, 61, 133, 84, 185, 60, 120, 221, 71, 189, 80, 34, 224, 188, 126, 55, 157, 188, 204, 159, 65, 189, 84, 237, 155, 60, 1, 188, 69, 189, 218, 186, 11, 61, 136, 89, 49, 60, 228, 100, 248, 60, 70, 11, 155, 187, 80, 182, 178, 60, 150, 124, 95, 189, 110, 206, 72, 188, 247, 93, 175, 186, 163, 60, 68, 60, 198, 184, 244, 60, 63, 121, 84, 189, 143, 180, 98, 189, 203, 146, 71, 59, 182, 136, 74, 61, 160, 227, 95, 187, 77, 151, 52, 189, 164, 113, 129, 189, 105, 160, 43, 187, 229, 31, 25, 61, 126, 153, 102, 61, 146, 28, 126, 61, 208, 4, 246, 59, 60, 81, 9, 61, 144, 190, 70, 189, 4, 125, 147, 189, 20, 55, 112, 61, 120, 30, 55, 61, 255, 50, 76, 187, 168, 100, 182, 60, 148, 59, 114, 189, 21, 157, 77, 59, 152, 179, 238, 60, 244, 133, 61, 188, 198, 194, 86, 61, 246, 117, 143, 188, 225, 43, 5, 60, 84, 57, 156, 60, 125, 85, 32, 188, 160, 80, 112, 59, 142, 186, 203, 188, 19, 102, 138, 189, 154, 8, 70, 60, 183, 151, 46, 189, 205, 191, 96, 61, 112, 165, 101, 60, 142, 59, 20, 189, 120, 146, 63, 61, 3, 252, 148, 189, 21, 132, 83, 189, 184, 99, 107, 61, 104, 247, 193, 188, 108, 209, 151, 188, 183, 180, 55, 61, 92, 223, 209, 60, 21, 102, 8, 189, 208, 211, 42, 189, 37, 141, 105, 188, 167, 5, 123, 189, 73, 101, 102, 61, 68, 175, 38, 189, 8, 39, 4, 189, 47, 66, 148, 187, 26, 69, 36, 188, 37, 255, 243, 60, 134, 9, 109, 61, 243, 6, 37, 61, 230, 145, 101, 188, 17, 97, 224, 60, 224, 192, 56, 187, 198, 241, 147, 60, 218, 68, 106, 189, 160, 149, 209, 59, 79, 208, 162, 188, 243, 145, 41, 61, 182, 81, 148, 60, 104, 156, 118, 61, 191, 47, 144, 60, 207, 68, 92, 189, 99, 81, 24, 187, 211, 127, 9, 60, 138, 29, 229, 188, 36, 162, 46, 61, 201, 13, 99, 186, 114, 86, 95, 189, 231, 162, 55, 61, 89, 80, 29, 61, 210, 168, 19, 189, 128, 187, 25, 59, 54, 27, 132, 60, 140, 139, 63, 189, 162, 199, 55, 61, 106, 41, 64, 61, 97, 113, 40, 188, 79, 106, 37, 61, 83, 101, 21, 189, 73, 233, 28, 61, 48, 58, 33, 59, 219, 44, 29, 61, 83, 178, 109, 60, 248, 215, 252, 188, 15, 194, 131, 61, 146, 116, 77, 189, 73, 106, 240, 188, 96, 172, 134, 189, 200, 189, 109, 188, 240, 29, 100, 61, 17, 74, 140, 187, 10, 210, 24, 189, 139, 7, 161, 60, 131, 18, 226, 60, 198, 221, 101, 61, 6, 255, 154, 60, 213, 17, 153, 189, 4, 128, 129, 189, 254, 63, 75, 61, 102, 207, 31, 61, 196, 28, 167, 60, 250, 81, 43, 61, 132, 245, 233, 188, 210, 142, 13, 61, 110, 101, 75, 189, 171, 238, 31, 189, 142, 251, 41, 189, 42, 226, 142, 189, 167, 98, 153, 60, 84, 49, 95, 61, 244, 30, 105, 188, 67, 2, 102, 61, 98, 125, 28, 60, 229, 106, 113, 188, 145, 56, 50, 60, 84, 178, 42, 189, 89, 118, 58, 189, 223, 156, 135, 189, 97, 211, 248, 60, 224, 99, 61, 59, 242, 223, 227, 60, 206, 120, 176, 188, 150, 59, 180, 57, 11, 169, 119, 59, 16, 174, 126, 60, 52, 11, 204, 188, 193, 161, 37, 187, 214, 51, 149, 188, 0, 182, 108, 60, 216, 88, 81, 186, 252, 114, 37, 189, 170, 132, 42, 61, 156, 249, 229, 188, 40, 32, 47, 60, 12, 108, 102, 60, 234, 204, 119, 61, 140, 1, 252, 60, 237, 88, 48, 60, 51, 95, 141, 188, 48, 51, 113, 61, 50, 22, 195, 188, 40, 237, 129, 189, 119, 108, 28, 189, 187, 20, 162, 188, 0, 14, 172, 57, 71, 214, 126, 59, 227, 207, 25, 187, 170, 130, 35, 61, 43, 239, 102, 189, 173, 87, 91, 61, 121, 146, 144, 189, 160, 150, 113, 59, 151, 232, 49, 189, 74, 243, 50, 60, 252, 68, 48, 61, 154, 186, 135, 189, 176, 67, 110, 61, 50, 252, 133, 59, 40, 8, 19, 61, 83, 206, 239, 58, 184, 123, 155, 187, 13, 114, 76, 189, 164, 244, 108, 60, 56, 198, 30, 60, 188, 20, 130, 189, 125, 36, 34, 61, 120, 166, 84, 61, 59, 150, 206, 59, 254, 238, 36, 60, 83, 194, 242, 188, 226, 121, 221, 60, 214, 144, 164, 60, 250, 118, 149, 189, 65, 91, 2, 60, 37, 139, 236, 60, 61, 33, 13, 189, 93, 89, 87, 61, 159, 246, 172, 188, 145, 163, 179, 187, 191, 158, 73, 189, 182, 197, 249, 60, 88, 17, 122, 187, 177, 77, 35, 189, 188, 8, 140, 189, 117, 188, 174, 187, 19, 33, 73, 189, 164, 213, 129, 189, 91, 71, 221, 60, 165, 177, 97, 61, 24, 46, 93, 61, 108, 251, 149, 189, 8, 193, 182, 60, 94, 108, 152, 60, 35, 231, 3, 61, 123, 98, 145, 189, 71, 222, 251, 187, 154, 102, 25, 189, 173, 65, 205, 60, 255, 234, 8, 61, 190, 77, 95, 59, 43, 152, 33, 189, 76, 128, 183, 59, 173, 218, 83, 189, 91, 190, 14, 189, 212, 154, 250, 60, 194, 126, 121, 61, 139, 194, 131, 189, 18, 173, 104, 61, 124, 19, 144, 189, 201, 175, 186, 60, 100, 83, 77, 189, 5, 51, 171, 60, 157, 200, 7, 189, 64, 43, 160, 59, 254, 154, 104, 61, 170, 210, 104, 61, 40, 155, 78, 189, 186, 41, 87, 189, 142, 48, 95, 60, 82, 21, 249, 60, 214, 211, 5, 189, 69, 33, 23, 61, 21, 141, 30, 189, 159, 50, 6, 61, 148, 10, 108, 189, 230, 77, 227, 188, 43, 53, 225, 59, 217, 220, 86, 61, 248, 50, 119, 61, 206, 83, 92, 61, 211, 97, 238, 60, 146, 144, 105, 188, 35, 139, 129, 61, 143, 208, 253, 187, 174, 85, 108, 61, 130, 22, 20, 61, 246, 244, 11, 189, 23, 63, 103, 61, 85, 25, 249, 60, 213, 125, 93, 189, 83, 52, 11, 189, 60, 119, 14, 189, 25, 127, 66, 60, 241, 251, 191, 59, 231, 51, 67, 189, 209, 46, 133, 189, 172, 52, 202, 188, 71, 64, 132, 61, 231, 74, 154, 60, 58, 237, 150, 188, 148, 208, 20, 60, 202, 218, 146, 189, 211, 125, 224, 60, 90, 14, 165, 60, 69, 77, 87, 61, 103, 40, 97, 189, 66, 184, 134, 189, 87, 230, 86, 61, 50, 77, 62, 189, 191, 113, 0, 189, 184, 175, 147, 189, 8, 202, 10, 189, 214, 190, 44, 186, 253, 201, 9, 61, 117, 108, 229, 58, 199, 147, 52, 189, 182, 0, 87, 61, 151, 111, 100, 61, 216, 149, 142, 188, 179, 45, 210, 60, 254, 180, 31, 189, 139, 78, 95, 189, 128, 69, 139, 189, 108, 178, 94, 61, 170, 77, 106, 59, 166, 170, 184, 60, 15, 108, 66, 189, 31, 152, 27, 61, 59, 14, 141, 189, 164, 152, 244, 60, 104, 67, 168, 60, 198, 190, 30, 60, 183, 168, 172, 188, 233, 184, 125, 189, 163, 47, 48, 189, 221, 166, 223, 60, 183, 3, 31, 61, 153, 61, 212, 188, 206, 41, 103, 61, 26, 120, 85, 189, 6, 228, 231, 59, 86, 131, 122, 188, 177, 55, 235, 60, 69, 236, 56, 186, 189, 247, 224, 187, 28, 72, 77, 189, 242, 48, 179, 59, 128, 93, 222, 188, 234, 29, 215, 188, 89, 5, 95, 61, 167, 13, 141, 189, 157, 2, 93, 61, 109, 46, 79, 61, 27, 1, 152, 189, 43, 29, 149, 187, 57, 21, 250, 60, 31, 251, 219, 187, 100, 23, 114, 189, 63, 192, 255, 188, 149, 185, 116, 61, 233, 146, 3, 189, 78, 174, 188, 60, 184, 64, 112, 61, 56, 35, 199, 60, 59, 48, 226, 60, 206, 149, 207, 188, 171, 120, 93, 60, 185, 217, 82, 61, 74, 97, 1, 61, 106, 85, 108, 59, 249, 7, 137, 189, 184, 171, 13, 189, 25, 225, 13, 61, 162, 183, 123, 61, 186, 133, 182, 188, 21, 193, 60, 189, 237, 249, 130, 189, 176, 145, 89, 60, 189, 36, 159, 189, 208, 204, 111, 61, 89, 106, 101, 187, 126, 209, 61, 60, 218, 148, 8, 188, 160, 112, 127, 189, 112, 244, 88, 186, 98, 159, 93, 60, 110, 12, 31, 59, 80, 48, 151, 61, 255, 217, 61, 189, 44, 27, 182, 185, 121, 210, 48, 188, 180, 255, 42, 61, 207, 245, 173, 187, 227, 170, 111, 59, 18, 104, 99, 189, 200, 160, 151, 189, 241, 193, 10, 189, 56, 106, 112, 189, 19, 32, 4, 189, 187, 51, 82, 188, 125, 180, 135, 61, 92, 40, 51, 61, 44, 39, 168, 188, 76, 87, 123, 61, 173, 244, 232, 56, 58, 86, 204, 60, 164, 179, 68, 189, 54, 121, 122, 61, 100, 100, 139, 187, 112, 8, 97, 61, 150, 81, 229, 188, 178, 172, 131, 188, 207, 247, 253, 60, 148, 21, 5, 59, 32, 60, 134, 61, 144, 188, 143, 61, 21, 183, 30, 59, 172, 102, 49, 59, 70, 99, 245, 188, 133, 166, 93, 61, 28, 139, 24, 188, 175, 24, 145, 189, 241, 94, 152, 189, 203, 65, 79, 189, 236, 208, 69, 188, 108, 69, 62, 187, 239, 23, 218, 60, 40, 26, 171, 60, 172, 111, 6, 189, 88, 242, 62, 61, 71, 62, 55, 61, 105, 165, 164, 187, 139, 95, 124, 189, 172, 187, 152, 59, 47, 242, 13, 189, 41, 194, 8, 61, 1, 17, 12, 59, 100, 29, 94, 189, 125, 4, 196, 188, 81, 102, 97, 61, 79, 131, 202, 60, 90, 148, 65, 189, 118, 220, 90, 188, 133, 252, 134, 188, 231, 159, 93, 60, 53, 239, 71, 61, 183, 88, 25, 189, 94, 186, 97, 188, 112, 144, 133, 189, 79, 226, 107, 189, 208, 36, 167, 188, 183, 5, 81, 189, 240, 36, 160, 189, 134, 93, 147, 61, 223, 89, 144, 187, 98, 54, 177, 60, 228, 98, 110, 189, 61, 179, 221, 60, 236, 22, 74, 189, 54, 120, 66, 61, 23, 189, 177, 188, 178, 205, 141, 189, 105, 103, 39, 189, 230, 198, 42, 60, 8, 174, 254, 188, 86, 25, 212, 59, 18, 155, 222, 60, 27, 39, 127, 60, 50, 53, 49, 61, 240, 46, 250, 187, 218, 218, 136, 189, 69, 186, 234, 188, 78, 92, 102, 189, 226, 62, 244, 60, 92, 177, 88, 61, 122, 74, 133, 61, 225, 60, 62, 61, 240, 7, 241, 60, 145, 57, 180, 188, 255, 144, 56, 189, 203, 136, 110, 189, 153, 120, 126, 189, 159, 207, 160, 59, 151, 14, 149, 189, 201, 227, 123, 60, 92, 3, 190, 60, 105, 238, 74, 61, 72, 163, 92, 189, 146, 81, 151, 60, 88, 96, 26, 189, 166, 181, 74, 188, 29, 61, 69, 61, 127, 75, 142, 189, 177, 43, 113, 61, 222, 237, 71, 189, 29, 121, 139, 189, 14, 120, 72, 189, 69, 163, 169, 188, 146, 148, 224, 188, 57, 206, 65, 189, 99, 144, 125, 189, 116, 9, 58, 60, 103, 75, 75, 61, 4, 50, 107, 189, 84, 43, 76, 61, 1, 109, 43, 61, 6, 203, 42, 189, 95, 27, 33, 60, 233, 86, 54, 61, 226, 138, 241, 188, 30, 197, 95, 61, 108, 187, 113, 60, 130, 144, 57, 189, 119, 123, 115, 59, 200, 71, 62, 60, 24, 142, 116, 61, 231, 170, 109, 60, 200, 183, 149, 188, 150, 219, 64, 61, 91, 73, 132, 189, 158, 155, 213, 188, 199, 35, 70, 59, 222, 201, 70, 189, 70, 192, 60, 61, 62, 35, 61, 189, 14, 155, 96, 189, 153, 17, 111, 61, 31, 227, 81, 60, 142, 107, 4, 187, 145, 102, 136, 189, 187, 149, 155, 188, 225, 221, 49, 189, 169, 62, 47, 61, 242, 36, 152, 189, 90, 81, 20, 61, 32, 10, 50, 61, 79, 240, 100, 60, 74, 7, 131, 188, 151, 224, 103, 61, 57, 102, 28, 186, 159, 194, 117, 189, 57, 252, 124, 57, 227, 137, 125, 189, 212, 117, 115, 61, 189, 100, 137, 188, 149, 88, 219, 188, 123, 10, 239, 60, 216, 30, 13, 61, 91, 145, 72, 189, 140, 224, 131, 188, 148, 120, 82, 189, 79, 34, 116, 60, 198, 66, 154, 189, 151, 207, 253, 188, 228, 174, 41, 189, 90, 61, 15, 189, 121, 121, 174, 60, 163, 161, 241, 188, 173, 199, 24, 61, 171, 183, 130, 189, 239, 24, 234, 188, 49, 2, 93, 188, 39, 90, 196, 60, 177, 32, 199, 188, 225, 142, 151, 60, 132, 152, 32, 189, 134, 33, 136, 189, 166, 65, 150, 188, 52, 26, 158, 189, 235, 244, 75, 61, 152, 32, 81, 188, 169, 48, 88, 189, 7, 234, 117, 189, 24, 73, 223, 60, 207, 172, 223, 59, 57, 161, 145, 189, 28, 218, 31, 189, 207, 191, 41, 188, 63, 3, 112, 61, 2, 211, 154, 188, 136, 142, 235, 58, 130, 209, 134, 61, 114, 52, 92, 189, 143, 13, 45, 189, 63, 193, 252, 59, 54, 56, 136, 189, 176, 251, 137, 188, 96, 82, 155, 189, 163, 134, 24, 189, 128, 54, 138, 189, 145, 234, 107, 58, 123, 241, 47, 189, 151, 43, 57, 189, 205, 166, 79, 61, 10, 59, 12, 60, 128, 45, 54, 61, 98, 1, 6, 188, 126, 67, 9, 58, 243, 246, 108, 59, 173, 190, 84, 189, 246, 213, 202, 60, 206, 54, 232, 59, 186, 43, 88, 189, 241, 190, 61, 189, 10, 240, 153, 60, 241, 176, 238, 60, 218, 120, 133, 189, 11, 169, 77, 189, 179, 82, 164, 189, 122, 165, 4, 61, 146, 98, 207, 186, 218, 66, 24, 189, 95, 115, 88, 61, 241, 70, 116, 189, 217, 253, 37, 189, 119, 159, 136, 61, 90, 218, 82, 61, 132, 117, 20, 189, 110, 196, 34, 61, 109, 31, 71, 60, 249, 199, 200, 188, 130, 120, 98, 61, 72, 93, 107, 61, 198, 51, 99, 189, 223, 243, 13, 189, 81, 114, 68, 61, 8, 84, 131, 189, 83, 136, 19, 189, 20, 117, 169, 60, 172, 44, 122, 61, 84, 167, 85, 189, 106, 196, 208, 60, 68, 84, 56, 61, 226, 81, 194, 188, 205, 167, 86, 189, 137, 227, 158, 189, 195, 239, 34, 189, 131, 40, 38, 189, 196, 23, 41, 189, 43, 238, 75, 189, 80, 101, 191, 188, 205, 35, 234, 187, 18, 100, 131, 188, 9, 238, 248, 188, 184, 142, 15, 60, 161, 7, 55, 188, 146, 61, 96, 187, 19, 